const unsigned char impulse_2_trained_tflite[] = {
  0x1c, 0x00, 0x00, 0x00, 0x54, 0x46, 0x4c, 0x33, 0x00, 0x00, 0x12, 0x00,
  0x1c, 0x00, 0x04, 0x00, 0x08, 0x00, 0x0c, 0x00, 0x10, 0x00, 0x14, 0x00,
  0x00, 0x00, 0x18, 0x00, 0x12, 0x00, 0x00, 0x00, 0x03, 0x00, 0x00, 0x00,
  0x14, 0x00, 0x00, 0x00, 0x2c, 0x00, 0x00, 0x00, 0x54, 0x01, 0x00, 0x00,
  0x2c, 0x00, 0x00, 0x00, 0xfc, 0x00, 0x00, 0x00, 0x06, 0x00, 0x00, 0x00,
  0x28, 0x15, 0x00, 0x00, 0x64, 0x14, 0x00, 0x00, 0xa4, 0x12, 0x00, 0x00,
  0xfc, 0x10, 0x00, 0x00, 0x30, 0x06, 0x00, 0x00, 0xec, 0x02, 0x00, 0x00,
  0x01, 0x00, 0x00, 0x00, 0x4c, 0x01, 0x00, 0x00, 0x34, 0x00, 0x00, 0x00,
  0xf8, 0x37, 0x00, 0x00, 0xf4, 0x37, 0x00, 0x00, 0x08, 0x37, 0x00, 0x00,
  0xa0, 0x36, 0x00, 0x00, 0x20, 0x36, 0x00, 0x00, 0xc0, 0x35, 0x00, 0x00,
  0x24, 0x35, 0x00, 0x00, 0xc4, 0x34, 0x00, 0x00, 0x78, 0x34, 0x00, 0x00,
  0xe4, 0x32, 0x00, 0x00, 0xc0, 0x2f, 0x00, 0x00, 0x54, 0x2a, 0x00, 0x00,
  0x90, 0x29, 0x00, 0x00, 0x00, 0x23, 0x00, 0x00, 0x5c, 0x22, 0x00, 0x00,
  0xcc, 0x1b, 0x00, 0x00, 0x24, 0x1b, 0x00, 0x00, 0x84, 0x1a, 0x00, 0x00,
  0xdc, 0x19, 0x00, 0x00, 0x30, 0x19, 0x00, 0x00, 0x8c, 0x18, 0x00, 0x00,
  0xe0, 0x17, 0x00, 0x00, 0x34, 0x17, 0x00, 0x00, 0x90, 0x16, 0x00, 0x00,
  0xe4, 0x15, 0x00, 0x00, 0x40, 0x15, 0x00, 0x00, 0x90, 0x37, 0x00, 0x00,
  0x8c, 0x37, 0x00, 0x00, 0x88, 0x37, 0x00, 0x00, 0x84, 0x37, 0x00, 0x00,
  0x80, 0x37, 0x00, 0x00, 0x7c, 0x37, 0x00, 0x00, 0x78, 0x37, 0x00, 0x00,
  0x74, 0x37, 0x00, 0x00, 0x70, 0x37, 0x00, 0x00, 0x6c, 0x37, 0x00, 0x00,
  0x68, 0x37, 0x00, 0x00, 0x64, 0x37, 0x00, 0x00, 0x60, 0x37, 0x00, 0x00,
  0x5c, 0x37, 0x00, 0x00, 0x58, 0x37, 0x00, 0x00, 0x54, 0x37, 0x00, 0x00,
  0x50, 0x37, 0x00, 0x00, 0x4c, 0x37, 0x00, 0x00, 0x48, 0x37, 0x00, 0x00,
  0x44, 0x37, 0x00, 0x00, 0x40, 0x37, 0x00, 0x00, 0x3c, 0x37, 0x00, 0x00,
  0x38, 0x37, 0x00, 0x00, 0x34, 0x37, 0x00, 0x00, 0x30, 0x37, 0x00, 0x00,
  0x38, 0x00, 0x00, 0x00, 0x01, 0x00, 0x00, 0x00, 0x0c, 0x00, 0x00, 0x00,
  0x08, 0x00, 0x0c, 0x00, 0x04, 0x00, 0x08, 0x00, 0x08, 0x00, 0x00, 0x00,
  0x08, 0x00, 0x00, 0x00, 0x33, 0x00, 0x00, 0x00, 0x13, 0x00, 0x00, 0x00,
  0x6d, 0x69, 0x6e, 0x5f, 0x72, 0x75, 0x6e, 0x74, 0x69, 0x6d, 0x65, 0x5f,
  0x76, 0x65, 0x72, 0x73, 0x69, 0x6f, 0x6e, 0x00, 0xfa, 0xc9, 0xff, 0xff,
  0x04, 0x00, 0x00, 0x00, 0x10, 0x00, 0x00, 0x00, 0x31, 0x2e, 0x35, 0x2e,
  0x30, 0x00, 0x00, 0x00, 0x00, 0x00, 0x00, 0x00, 0x00, 0x00, 0x00, 0x00,
  0x0f, 0x00, 0x00, 0x00, 0x4d, 0x4c, 0x49, 0x52, 0x20, 0x43, 0x6f, 0x6e,
  0x76, 0x65, 0x72, 0x74, 0x65, 0x64, 0x2e, 0x00, 0x00, 0x00, 0x0e, 0x00,
  0x18, 0x00, 0x04, 0x00, 0x08, 0x00, 0x0c, 0x00, 0x10, 0x00, 0x14, 0x00,
  0x0e, 0x00, 0x00, 0x00, 0x14, 0x00, 0x00, 0x00, 0xdc, 0x00, 0x00, 0x00,
  0xe0, 0x00, 0x00, 0x00, 0xe4, 0x00, 0x00, 0x00, 0x48, 0x01, 0x00, 0x00,
  0x32, 0x00, 0x00, 0x00, 0x5c, 0x36, 0x00, 0x00, 0xd0, 0x35, 0x00, 0x00,
  0x70, 0x35, 0x00, 0x00, 0x10, 0x35, 0x00, 0x00, 0x90, 0x34, 0x00, 0x00,
  0xdc, 0x33, 0x00, 0x00, 0x94, 0x33, 0x00, 0x00, 0x34, 0x33, 0x00, 0x00,
  0x94, 0x32, 0x00, 0x00, 0x10, 0x31, 0x00, 0x00, 0xe4, 0x2d, 0x00, 0x00,
  0x80, 0x28, 0x00, 0x00, 0xb0, 0x27, 0x00, 0x00, 0x2c, 0x21, 0x00, 0x00,
  0x7c, 0x20, 0x00, 0x00, 0xe4, 0x19, 0x00, 0x00, 0x40, 0x19, 0x00, 0x00,
  0x9c, 0x18, 0x00, 0x00, 0xf0, 0x17, 0x00, 0x00, 0x48, 0x17, 0x00, 0x00,
  0xa0, 0x16, 0x00, 0x00, 0xf4, 0x15, 0x00, 0x00, 0x4c, 0x15, 0x00, 0x00,
  0xa4, 0x14, 0x00, 0x00, 0xfc, 0x13, 0x00, 0x00, 0x4c, 0x13, 0x00, 0x00,
  0x88, 0x12, 0x00, 0x00, 0xa4, 0x11, 0x00, 0x00, 0xc0, 0x10, 0x00, 0x00,
  0xc8, 0x0f, 0x00, 0x00, 0x18, 0x0f, 0x00, 0x00, 0x24, 0x0e, 0x00, 0x00,
  0x80, 0x0d, 0x00, 0x00, 0xb4, 0x0c, 0x00, 0x00, 0xc8, 0x0b, 0x00, 0x00,
  0xf8, 0x0a, 0x00, 0x00, 0x44, 0x0a, 0x00, 0x00, 0x6c, 0x09, 0x00, 0x00,
  0xc8, 0x08, 0x00, 0x00, 0xfc, 0x07, 0x00, 0x00, 0x10, 0x07, 0x00, 0x00,
  0x40, 0x06, 0x00, 0x00, 0x8c, 0x05, 0x00, 0x00, 0xc4, 0x04, 0x00, 0x00,
  0x18, 0x04, 0x00, 0x00, 0x58, 0x03, 0x00, 0x00, 0x78, 0x02, 0x00, 0x00,
  0xc8, 0x01, 0x00, 0x00, 0x30, 0x01, 0x00, 0x00, 0xc4, 0x00, 0x00, 0x00,
  0x01, 0x00, 0x00, 0x00, 0x00, 0x00, 0x00, 0x00, 0x01, 0x00, 0x00, 0x00,
  0x31, 0x00, 0x00, 0x00, 0x19, 0x00, 0x00, 0x00, 0x9c, 0x12, 0x00, 0x00,
  0xc8, 0x11, 0x00, 0x00, 0x0c, 0x11, 0x00, 0x00, 0xf8, 0x0f, 0x00, 0x00,
  0x30, 0x0f, 0x00, 0x00, 0x48, 0x0e, 0x00, 0x00, 0x8c, 0x0d, 0x00, 0x00,
  0xcc, 0x0c, 0x00, 0x00, 0x1c, 0x0c, 0x00, 0x00, 0x1c, 0x0b, 0x00, 0x00,
  0x60, 0x0a, 0x00, 0x00, 0x90, 0x09, 0x00, 0x00, 0xd4, 0x08, 0x00, 0x00,
  0x14, 0x08, 0x00, 0x00, 0x64, 0x07, 0x00, 0x00, 0x64, 0x06, 0x00, 0x00,
  0xa8, 0x05, 0x00, 0x00, 0xd8, 0x04, 0x00, 0x00, 0x2c, 0x04, 0x00, 0x00,
  0x60, 0x03, 0x00, 0x00, 0xc0, 0x02, 0x00, 0x00, 0xcc, 0x01, 0x00, 0x00,
  0x30, 0x01, 0x00, 0x00, 0x84, 0x00, 0x00, 0x00, 0x10, 0x00, 0x00, 0x00,
  0x04, 0x00, 0x00, 0x00, 0x6d, 0x61, 0x69, 0x6e, 0x00, 0x00, 0x00, 0x00,
  0xb2, 0xee, 0xff, 0xff, 0x00, 0x00, 0x00, 0x09, 0x05, 0x00, 0x00, 0x00,
  0x1c, 0x00, 0x00, 0x00, 0x10, 0x00, 0x00, 0x00, 0x04, 0x00, 0x00, 0x00,
  0xba, 0xcb, 0xff, 0xff, 0x00, 0x00, 0x80, 0x3f, 0x01, 0x00, 0x00, 0x00,
  0x31, 0x00, 0x00, 0x00, 0x01, 0x00, 0x00, 0x00, 0x30, 0x00, 0x00, 0x00,
  0xe2, 0xed, 0xff, 0xff, 0x00, 0x00, 0x00, 0x19, 0x01, 0x00, 0x00, 0x00,
  0x3a, 0xcb, 0xff, 0xff, 0x10, 0x00, 0x00, 0x00, 0x32, 0x00, 0x00, 0x00,
  0x14, 0x00, 0x00, 0x00, 0x20, 0x00, 0x00, 0x00, 0x02, 0x00, 0x00, 0x00,
  0x01, 0x00, 0x00, 0x00, 0x03, 0x00, 0x00, 0x00, 0x08, 0x00, 0x00, 0x00,
  0x49, 0x64, 0x65, 0x6e, 0x74, 0x69, 0x74, 0x79, 0x00, 0x00, 0x00, 0x00,
  0x24, 0xcb, 0xff, 0xff, 0x22, 0xef, 0xff, 0xff, 0x00, 0x00, 0x00, 0x08,
  0x04, 0x00, 0x00, 0x00, 0x18, 0x00, 0x00, 0x00, 0x0c, 0x00, 0x00, 0x00,
  0x04, 0x00, 0x00, 0x00, 0x40, 0xcb, 0xff, 0xff, 0x01, 0x00, 0x00, 0x00,
  0x30, 0x00, 0x00, 0x00, 0x03, 0x00, 0x00, 0x00, 0x2f, 0x00, 0x00, 0x00,
  0x09, 0x00, 0x00, 0x00, 0x07, 0x00, 0x00, 0x00, 0xa2, 0xcb, 0xff, 0xff,
  0x10, 0x00, 0x00, 0x00, 0x31, 0x00, 0x00, 0x00, 0x14, 0x00, 0x00, 0x00,
  0x60, 0x00, 0x00, 0x00, 0x02, 0x00, 0x00, 0x00, 0x01, 0x00, 0x00, 0x00,
  0x03, 0x00, 0x00, 0x00, 0x4b, 0x00, 0x00, 0x00, 0x73, 0x65, 0x71, 0x75,
  0x65, 0x6e, 0x74, 0x69, 0x61, 0x6c, 0x2f, 0x79, 0x5f, 0x70, 0x72, 0x65,
  0x64, 0x2f, 0x42, 0x69, 0x61, 0x73, 0x41, 0x64, 0x64, 0x3b, 0x53, 0x74,
  0x61, 0x74, 0x65, 0x66, 0x75, 0x6c, 0x50, 0x61, 0x72, 0x74, 0x69, 0x74,
  0x69, 0x6f, 0x6e, 0x65, 0x64, 0x43, 0x61, 0x6c, 0x6c, 0x2f, 0x73, 0x65,
  0x71, 0x75, 0x65, 0x6e, 0x74, 0x69, 0x61, 0x6c, 0x2f, 0x79, 0x5f, 0x70,
  0x72, 0x65, 0x64, 0x2f, 0x42, 0x69, 0x61, 0x73, 0x41, 0x64, 0x64, 0x00,
  0xcc, 0xcb, 0xff, 0xff, 0xf6, 0xee, 0xff, 0xff, 0x10, 0x00, 0x00, 0x00,
  0x04, 0x00, 0x00, 0x00, 0x01, 0x00, 0x00, 0x00, 0x2f, 0x00, 0x00, 0x00,
  0x02, 0x00, 0x00, 0x00, 0x2e, 0x00, 0x00, 0x00, 0x01, 0x00, 0x00, 0x00,
  0x36, 0xcc, 0xff, 0xff, 0x10, 0x00, 0x00, 0x00, 0x30, 0x00, 0x00, 0x00,
  0x14, 0x00, 0x00, 0x00, 0x64, 0x00, 0x00, 0x00, 0x02, 0x00, 0x00, 0x00,
  0x01, 0x00, 0x00, 0x00, 0x38, 0x00, 0x00, 0x00, 0x4d, 0x00, 0x00, 0x00,
  0x73, 0x65, 0x71, 0x75, 0x65, 0x6e, 0x74, 0x69, 0x61, 0x6c, 0x2f, 0x66,
  0x6c, 0x61, 0x74, 0x74, 0x65, 0x6e, 0x2f, 0x52, 0x65, 0x73, 0x68, 0x61,
  0x70, 0x65, 0x3b, 0x53, 0x74, 0x61, 0x74, 0x65, 0x66, 0x75, 0x6c, 0x50,
  0x61, 0x72, 0x74, 0x69, 0x74, 0x69, 0x6f, 0x6e, 0x65, 0x64, 0x43, 0x61,
  0x6c, 0x6c, 0x2f, 0x73, 0x65, 0x71, 0x75, 0x65, 0x6e, 0x74, 0x69, 0x61,
  0x6c, 0x2f, 0x66, 0x6c, 0x61, 0x74, 0x74, 0x65, 0x6e, 0x2f, 0x52, 0x65,
  0x73, 0x68, 0x61, 0x70, 0x65, 0x00, 0x00, 0x00, 0x64, 0xcc, 0xff, 0xff,
  0x62, 0xf0, 0xff, 0xff, 0x00, 0x00, 0x00, 0x0b, 0x02, 0x00, 0x00, 0x00,
  0x1c, 0x00, 0x00, 0x00, 0x10, 0x00, 0x00, 0x00, 0x04, 0x00, 0x00, 0x00,
  0x1a, 0xf2, 0xff, 0xff, 0x00, 0x00, 0x00, 0x01, 0x01, 0x00, 0x00, 0x00,
  0x2e, 0x00, 0x00, 0x00, 0x02, 0x00, 0x00, 0x00, 0x2d, 0x00, 0x00, 0x00,
  0x06, 0x00, 0x00, 0x00, 0xe2, 0xcc, 0xff, 0xff, 0x10, 0x00, 0x00, 0x00,
  0x2f, 0x00, 0x00, 0x00, 0x18, 0x00, 0x00, 0x00, 0xa8, 0x00, 0x00, 0x00,
  0x03, 0x00, 0x00, 0x00, 0x01, 0x00, 0x00, 0x00, 0x07, 0x00, 0x00, 0x00,
  0x08, 0x00, 0x00, 0x00, 0x8d, 0x00, 0x00, 0x00, 0x73, 0x65, 0x71, 0x75,
  0x65, 0x6e, 0x74, 0x69, 0x61, 0x6c, 0x2f, 0x64, 0x65, 0x6e, 0x73, 0x65,
  0x2f, 0x52, 0x65, 0x6c, 0x75, 0x3b, 0x53, 0x74, 0x61, 0x74, 0x65, 0x66,
  0x75, 0x6c, 0x50, 0x61, 0x72, 0x74, 0x69, 0x74, 0x69, 0x6f, 0x6e, 0x65,
  0x64, 0x43, 0x61, 0x6c, 0x6c, 0x2f, 0x73, 0x65, 0x71, 0x75, 0x65, 0x6e,
  0x74, 0x69, 0x61, 0x6c, 0x2f, 0x64, 0x65, 0x6e, 0x73, 0x65, 0x2f, 0x52,
  0x65, 0x6c, 0x75, 0x3b, 0x73, 0x65, 0x71, 0x75, 0x65, 0x6e, 0x74, 0x69,
  0x61, 0x6c, 0x2f, 0x64, 0x65, 0x6e, 0x73, 0x65, 0x2f, 0x42, 0x69, 0x61,
  0x73, 0x41, 0x64, 0x64, 0x3b, 0x53, 0x74, 0x61, 0x74, 0x65, 0x66, 0x75,
  0x6c, 0x50, 0x61, 0x72, 0x74, 0x69, 0x74, 0x69, 0x6f, 0x6e, 0x65, 0x64,
  0x43, 0x61, 0x6c, 0x6c, 0x2f, 0x73, 0x65, 0x71, 0x75, 0x65, 0x6e, 0x74,
  0x69, 0x61, 0x6c, 0x2f, 0x64, 0x65, 0x6e, 0x73, 0x65, 0x2f, 0x42, 0x69,
  0x61, 0x73, 0x41, 0x64, 0x64, 0x00, 0x00, 0x00, 0x54, 0xcd, 0xff, 0xff,
  0x7e, 0xf0, 0xff, 0xff, 0x10, 0x00, 0x00, 0x00, 0x04, 0x00, 0x00, 0x00,
  0x01, 0x00, 0x00, 0x00, 0x2d, 0x00, 0x00, 0x00, 0x02, 0x00, 0x00, 0x00,
  0x2c, 0x00, 0x00, 0x00, 0x18, 0x00, 0x00, 0x00, 0xbe, 0xcd, 0xff, 0xff,
  0x10, 0x00, 0x00, 0x00, 0x2e, 0x00, 0x00, 0x00, 0x18, 0x00, 0x00, 0x00,
  0x68, 0x00, 0x00, 0x00, 0x03, 0x00, 0x00, 0x00, 0x01, 0x00, 0x00, 0x00,
  0x07, 0x00, 0x00, 0x00, 0x08, 0x00, 0x00, 0x00, 0x4d, 0x00, 0x00, 0x00,
  0x73, 0x65, 0x71, 0x75, 0x65, 0x6e, 0x74, 0x69, 0x61, 0x6c, 0x2f, 0x64,
  0x65, 0x6e, 0x73, 0x65, 0x2f, 0x54, 0x65, 0x6e, 0x73, 0x6f, 0x72, 0x64,
  0x6f, 0x74, 0x3b, 0x53, 0x74, 0x61, 0x74, 0x65, 0x66, 0x75, 0x6c, 0x50,
  0x61, 0x72, 0x74, 0x69, 0x74, 0x69, 0x6f, 0x6e, 0x65, 0x64, 0x43, 0x61,
  0x6c, 0x6c, 0x2f, 0x73, 0x65, 0x71, 0x75, 0x65, 0x6e, 0x74, 0x69, 0x61,
  0x6c, 0x2f, 0x64, 0x65, 0x6e, 0x73, 0x65, 0x2f, 0x54, 0x65, 0x6e, 0x73,
  0x6f, 0x72, 0x64, 0x6f, 0x74, 0x00, 0x00, 0x00, 0xf0, 0xcd, 0xff, 0xff,
  0xee, 0xf1, 0xff, 0xff, 0x00, 0x00, 0x00, 0x08, 0x04, 0x00, 0x00, 0x00,
  0x18, 0x00, 0x00, 0x00, 0x0c, 0x00, 0x00, 0x00, 0x04, 0x00, 0x00, 0x00,
  0x0c, 0xce, 0xff, 0xff, 0x01, 0x00, 0x00, 0x00, 0x2c, 0x00, 0x00, 0x00,
  0x03, 0x00, 0x00, 0x00, 0x2b, 0x00, 0x00, 0x00, 0x08, 0x00, 0x00, 0x00,
  0xff, 0xff, 0xff, 0xff, 0x22, 0xf1, 0xff, 0xff, 0x00, 0x00, 0x00, 0x09,
  0x01, 0x00, 0x00, 0x00, 0x7a, 0xce, 0xff, 0xff, 0x10, 0x00, 0x00, 0x00,
  0x2d, 0x00, 0x00, 0x00, 0x14, 0x00, 0x00, 0x00, 0x74, 0x00, 0x00, 0x00,
  0x02, 0x00, 0x00, 0x00, 0x07, 0x00, 0x00, 0x00, 0x08, 0x00, 0x00, 0x00,
  0x5c, 0x00, 0x00, 0x00, 0x73, 0x65, 0x71, 0x75, 0x65, 0x6e, 0x74, 0x69,
  0x61, 0x6c, 0x2f, 0x64, 0x65, 0x6e, 0x73, 0x65, 0x2f, 0x54, 0x65, 0x6e,
  0x73, 0x6f, 0x72, 0x64, 0x6f, 0x74, 0x2f, 0x4d, 0x61, 0x74, 0x4d, 0x75,
  0x6c, 0x3b, 0x53, 0x74, 0x61, 0x74, 0x65, 0x66, 0x75, 0x6c, 0x50, 0x61,
  0x72, 0x74, 0x69, 0x74, 0x69, 0x6f, 0x6e, 0x65, 0x64, 0x43, 0x61, 0x6c,
  0x6c, 0x2f, 0x73, 0x65, 0x71, 0x75, 0x65, 0x6e, 0x74, 0x69, 0x61, 0x6c,
  0x2f, 0x64, 0x65, 0x6e, 0x73, 0x65, 0x2f, 0x54, 0x65, 0x6e, 0x73, 0x6f,
  0x72, 0x64, 0x6f, 0x74, 0x2f, 0x4d, 0x61, 0x74, 0x4d, 0x75, 0x6c, 0x32,
  0x00, 0x00, 0x00, 0x00, 0xb8, 0xce, 0xff, 0xff, 0xe2, 0xf1, 0xff, 0xff,
  0x10, 0x00, 0x00, 0x00, 0x04, 0x00, 0x00, 0x00, 0x01, 0x00, 0x00, 0x00,
  0x2b, 0x00, 0x00, 0x00, 0x02, 0x00, 0x00, 0x00, 0x2a, 0x00, 0x00, 0x00,
  0x05, 0x00, 0x00, 0x00, 0x22, 0xcf, 0xff, 0xff, 0x10, 0x00, 0x00, 0x00,
  0x2c, 0x00, 0x00, 0x00, 0x14, 0x00, 0x00, 0x00, 0x74, 0x00, 0x00, 0x00,
  0x02, 0x00, 0x00, 0x00, 0x07, 0x00, 0x00, 0x00, 0x08, 0x00, 0x00, 0x00,
  0x5d, 0x00, 0x00, 0x00, 0x73, 0x65, 0x71, 0x75, 0x65, 0x6e, 0x74, 0x69,
  0x61, 0x6c, 0x2f, 0x64, 0x65, 0x6e, 0x73, 0x65, 0x2f, 0x54, 0x65, 0x6e,
  0x73, 0x6f, 0x72, 0x64, 0x6f, 0x74, 0x2f, 0x52, 0x65, 0x73, 0x68, 0x61,
  0x70, 0x65, 0x3b, 0x53, 0x74, 0x61, 0x74, 0x65, 0x66, 0x75, 0x6c, 0x50,
  0x61, 0x72, 0x74, 0x69, 0x74, 0x69, 0x6f, 0x6e, 0x65, 0x64, 0x43, 0x61,
  0x6c, 0x6c, 0x2f, 0x73, 0x65, 0x71, 0x75, 0x65, 0x6e, 0x74, 0x69, 0x61,
  0x6c, 0x2f, 0x64, 0x65, 0x6e, 0x73, 0x65, 0x2f, 0x54, 0x65, 0x6e, 0x73,
  0x6f, 0x72, 0x64, 0x6f, 0x74, 0x2f, 0x52, 0x65, 0x73, 0x68, 0x61, 0x70,
  0x65, 0x00, 0x00, 0x00, 0x60, 0xcf, 0xff, 0xff, 0x5e, 0xf3, 0xff, 0xff,
  0x00, 0x00, 0x00, 0x05, 0x03, 0x00, 0x00, 0x00, 0x28, 0x00, 0x00, 0x00,
  0x1c, 0x00, 0x00, 0x00, 0x04, 0x00, 0x00, 0x00, 0xbe, 0xf6, 0xff, 0xff,
  0x02, 0x00, 0x00, 0x00, 0x01, 0x00, 0x00, 0x00, 0x02, 0x00, 0x00, 0x00,
  0x01, 0x00, 0x00, 0x00, 0x01, 0x00, 0x00, 0x00, 0x2a, 0x00, 0x00, 0x00,
  0x01, 0x00, 0x00, 0x00, 0x29, 0x00, 0x00, 0x00, 0xe6, 0xcf, 0xff, 0xff,
  0x10, 0x00, 0x00, 0x00, 0x2b, 0x00, 0x00, 0x00, 0x1c, 0x00, 0x00, 0x00,
  0x7c, 0x00, 0x00, 0x00, 0x04, 0x00, 0x00, 0x00, 0x01, 0x00, 0x00, 0x00,
  0x07, 0x00, 0x00, 0x00, 0x01, 0x00, 0x00, 0x00, 0x08, 0x00, 0x00, 0x00,
  0x5d, 0x00, 0x00, 0x00, 0x73, 0x65, 0x71, 0x75, 0x65, 0x6e, 0x74, 0x69,
  0x61, 0x6c, 0x2f, 0x6d, 0x61, 0x78, 0x5f, 0x70, 0x6f, 0x6f, 0x6c, 0x69,
  0x6e, 0x67, 0x31, 0x64, 0x5f, 0x32, 0x2f, 0x4d, 0x61, 0x78, 0x50, 0x6f,
  0x6f, 0x6c, 0x3b, 0x53, 0x74, 0x61, 0x74, 0x65, 0x66, 0x75, 0x6c, 0x50,
  0x61, 0x72, 0x74, 0x69, 0x74, 0x69, 0x6f, 0x6e, 0x65, 0x64, 0x43, 0x61,
  0x6c, 0x6c, 0x2f, 0x73, 0x65, 0x71, 0x75, 0x65, 0x6e, 0x74, 0x69, 0x61,
  0x6c, 0x2f, 0x6d, 0x61, 0x78, 0x5f, 0x70, 0x6f, 0x6f, 0x6c, 0x69, 0x6e,
  0x67, 0x31, 0x64, 0x5f, 0x32, 0x2f, 0x4d, 0x61, 0x78, 0x50, 0x6f, 0x6f,
  0x6c, 0x00, 0x00, 0x00, 0x2c, 0xd0, 0xff, 0xff, 0x56, 0xf3, 0xff, 0xff,
  0x10, 0x00, 0x00, 0x00, 0x04, 0x00, 0x00, 0x00, 0x01, 0x00, 0x00, 0x00,
  0x29, 0x00, 0x00, 0x00, 0x02, 0x00, 0x00, 0x00, 0x28, 0x00, 0x00, 0x00,
  0x17, 0x00, 0x00, 0x00, 0x96, 0xd0, 0xff, 0xff, 0x10, 0x00, 0x00, 0x00,
  0x2a, 0x00, 0x00, 0x00, 0x1c, 0x00, 0x00, 0x00, 0x84, 0x00, 0x00, 0x00,
  0x04, 0x00, 0x00, 0x00, 0x01, 0x00, 0x00, 0x00, 0x0d, 0x00, 0x00, 0x00,
  0x01, 0x00, 0x00, 0x00, 0x08, 0x00, 0x00, 0x00, 0x64, 0x00, 0x00, 0x00,
  0x73, 0x65, 0x71, 0x75, 0x65, 0x6e, 0x74, 0x69, 0x61, 0x6c, 0x2f, 0x6d,
  0x61, 0x78, 0x5f, 0x70, 0x6f, 0x6f, 0x6c, 0x69, 0x6e, 0x67, 0x31, 0x64,
  0x5f, 0x32, 0x2f, 0x45, 0x78, 0x70, 0x61, 0x6e, 0x64, 0x44, 0x69, 0x6d,
  0x73, 0x3b, 0x53, 0x74, 0x61, 0x74, 0x65, 0x66, 0x75, 0x6c, 0x50, 0x61,
  0x72, 0x74, 0x69, 0x74, 0x69, 0x6f, 0x6e, 0x65, 0x64, 0x43, 0x61, 0x6c,
  0x6c, 0x2f, 0x73, 0x65, 0x71, 0x75, 0x65, 0x6e, 0x74, 0x69, 0x61, 0x6c,
  0x2f, 0x6d, 0x61, 0x78, 0x5f, 0x70, 0x6f, 0x6f, 0x6c, 0x69, 0x6e, 0x67,
  0x31, 0x64, 0x5f, 0x32, 0x2f, 0x45, 0x78, 0x70, 0x61, 0x6e, 0x64, 0x44,
  0x69, 0x6d, 0x73, 0x31, 0x00, 0x00, 0x00, 0x00, 0xe4, 0xd0, 0xff, 0xff,
  0xe2, 0xf4, 0xff, 0xff, 0x00, 0x00, 0x00, 0x0b, 0x02, 0x00, 0x00, 0x00,
  0x1c, 0x00, 0x00, 0x00, 0x10, 0x00, 0x00, 0x00, 0x04, 0x00, 0x00, 0x00,
  0x9a, 0xf6, 0xff, 0xff, 0x00, 0x00, 0x00, 0x01, 0x01, 0x00, 0x00, 0x00,
  0x28, 0x00, 0x00, 0x00, 0x02, 0x00, 0x00, 0x00, 0x27, 0x00, 0x00, 0x00,
  0x04, 0x00, 0x00, 0x00, 0x62, 0xd1, 0xff, 0xff, 0x10, 0x00, 0x00, 0x00,
  0x29, 0x00, 0x00, 0x00, 0x18, 0x00, 0x00, 0x00, 0xb4, 0x00, 0x00, 0x00,
  0x03, 0x00, 0x00, 0x00, 0x01, 0x00, 0x00, 0x00, 0x0d, 0x00, 0x00, 0x00,
  0x08, 0x00, 0x00, 0x00, 0x99, 0x00, 0x00, 0x00, 0x73, 0x65, 0x71, 0x75,
  0x65, 0x6e, 0x74, 0x69, 0x61, 0x6c, 0x2f, 0x63, 0x6f, 0x6e, 0x76, 0x31,
  0x64, 0x5f, 0x32, 0x2f, 0x52, 0x65, 0x6c, 0x75, 0x3b, 0x53, 0x74, 0x61,
  0x74, 0x65, 0x66, 0x75, 0x6c, 0x50, 0x61, 0x72, 0x74, 0x69, 0x74, 0x69,
  0x6f, 0x6e, 0x65, 0x64, 0x43, 0x61, 0x6c, 0x6c, 0x2f, 0x73, 0x65, 0x71,
  0x75, 0x65, 0x6e, 0x74, 0x69, 0x61, 0x6c, 0x2f, 0x63, 0x6f, 0x6e, 0x76,
  0x31, 0x64, 0x5f, 0x32, 0x2f, 0x52, 0x65, 0x6c, 0x75, 0x3b, 0x73, 0x65,
  0x71, 0x75, 0x65, 0x6e, 0x74, 0x69, 0x61, 0x6c, 0x2f, 0x63, 0x6f, 0x6e,
  0x76, 0x31, 0x64, 0x5f, 0x32, 0x2f, 0x42, 0x69, 0x61, 0x73, 0x41, 0x64,
  0x64, 0x3b, 0x53, 0x74, 0x61, 0x74, 0x65, 0x66, 0x75, 0x6c, 0x50, 0x61,
  0x72, 0x74, 0x69, 0x74, 0x69, 0x6f, 0x6e, 0x65, 0x64, 0x43, 0x61, 0x6c,
  0x6c, 0x2f, 0x73, 0x65, 0x71, 0x75, 0x65, 0x6e, 0x74, 0x69, 0x61, 0x6c,
  0x2f, 0x63, 0x6f, 0x6e, 0x76, 0x31, 0x64, 0x5f, 0x32, 0x2f, 0x42, 0x69,
  0x61, 0x73, 0x41, 0x64, 0x64, 0x00, 0x00, 0x00, 0xe0, 0xd1, 0xff, 0xff,
  0x0a, 0xf5, 0xff, 0xff, 0x10, 0x00, 0x00, 0x00, 0x04, 0x00, 0x00, 0x00,
  0x01, 0x00, 0x00, 0x00, 0x27, 0x00, 0x00, 0x00, 0x02, 0x00, 0x00, 0x00,
  0x26, 0x00, 0x00, 0x00, 0x16, 0x00, 0x00, 0x00, 0x4a, 0xd2, 0xff, 0xff,
  0x10, 0x00, 0x00, 0x00, 0x28, 0x00, 0x00, 0x00, 0x18, 0x00, 0x00, 0x00,
  0x78, 0x00, 0x00, 0x00, 0x03, 0x00, 0x00, 0x00, 0x01, 0x00, 0x00, 0x00,
  0x0d, 0x00, 0x00, 0x00, 0x08, 0x00, 0x00, 0x00, 0x5e, 0x00, 0x00, 0x00,
  0x73, 0x65, 0x71, 0x75, 0x65, 0x6e, 0x74, 0x69, 0x61, 0x6c, 0x2f, 0x63,
  0x6f, 0x6e, 0x76, 0x31, 0x64, 0x5f, 0x32, 0x2f, 0x63, 0x6f, 0x6e, 0x76,
  0x31, 0x64, 0x2f, 0x53, 0x71, 0x75, 0x65, 0x65, 0x7a, 0x65, 0x3b, 0x53,
  0x74, 0x61, 0x74, 0x65, 0x66, 0x75, 0x6c, 0x50, 0x61, 0x72, 0x74, 0x69,
  0x74, 0x69, 0x6f, 0x6e, 0x65, 0x64, 0x43, 0x61, 0x6c, 0x6c, 0x2f, 0x73,
  0x65, 0x71, 0x75, 0x65, 0x6e, 0x74, 0x69, 0x61, 0x6c, 0x2f, 0x63, 0x6f,
  0x6e, 0x76, 0x31, 0x64, 0x5f, 0x32, 0x2f, 0x63, 0x6f, 0x6e, 0x76, 0x31,
  0x64, 0x2f, 0x53, 0x71, 0x75, 0x65, 0x65, 0x7a, 0x65, 0x31, 0x00, 0x00,
  0x8c, 0xd2, 0xff, 0xff, 0x8a, 0xf6, 0xff, 0xff, 0x00, 0x00, 0x00, 0x01,
  0x01, 0x00, 0x00, 0x00, 0x20, 0x00, 0x00, 0x00, 0x14, 0x00, 0x00, 0x00,
  0x04, 0x00, 0x00, 0x00, 0xce, 0xf5, 0xff, 0xff, 0x01, 0x00, 0x00, 0x00,
  0x01, 0x00, 0x00, 0x00, 0x01, 0x00, 0x00, 0x00, 0x26, 0x00, 0x00, 0x00,
  0x03, 0x00, 0x00, 0x00, 0x25, 0x00, 0x00, 0x00, 0x0e, 0x00, 0x00, 0x00,
  0x0d, 0x00, 0x00, 0x00, 0x12, 0xd3, 0xff, 0xff, 0x10, 0x00, 0x00, 0x00,
  0x27, 0x00, 0x00, 0x00, 0x1c, 0x00, 0x00, 0x00, 0x6c, 0x00, 0x00, 0x00,
  0x04, 0x00, 0x00, 0x00, 0x01, 0x00, 0x00, 0x00, 0x01, 0x00, 0x00, 0x00,
  0x0d, 0x00, 0x00, 0x00, 0x08, 0x00, 0x00, 0x00, 0x4e, 0x00, 0x00, 0x00,
  0x73, 0x65, 0x71, 0x75, 0x65, 0x6e, 0x74, 0x69, 0x61, 0x6c, 0x2f, 0x63,
  0x6f, 0x6e, 0x76, 0x31, 0x64, 0x5f, 0x32, 0x2f, 0x63, 0x6f, 0x6e, 0x76,
  0x31, 0x64, 0x3b, 0x53, 0x74, 0x61, 0x74, 0x65, 0x66, 0x75, 0x6c, 0x50,
  0x61, 0x72, 0x74, 0x69, 0x74, 0x69, 0x6f, 0x6e, 0x65, 0x64, 0x43, 0x61,
  0x6c, 0x6c, 0x2f, 0x73, 0x65, 0x71, 0x75, 0x65, 0x6e, 0x74, 0x69, 0x61,
  0x6c, 0x2f, 0x63, 0x6f, 0x6e, 0x76, 0x31, 0x64, 0x5f, 0x32, 0x2f, 0x63,
  0x6f, 0x6e, 0x76, 0x31, 0x64, 0x32, 0x00, 0x00, 0x48, 0xd3, 0xff, 0xff,
  0x72, 0xf6, 0xff, 0xff, 0x10, 0x00, 0x00, 0x00, 0x04, 0x00, 0x00, 0x00,
  0x01, 0x00, 0x00, 0x00, 0x25, 0x00, 0x00, 0x00, 0x02, 0x00, 0x00, 0x00,
  0x24, 0x00, 0x00, 0x00, 0x15, 0x00, 0x00, 0x00, 0xb2, 0xd3, 0xff, 0xff,
  0x10, 0x00, 0x00, 0x00, 0x26, 0x00, 0x00, 0x00, 0x1c, 0x00, 0x00, 0x00,
  0x84, 0x00, 0x00, 0x00, 0x04, 0x00, 0x00, 0x00, 0x01, 0x00, 0x00, 0x00,
  0x01, 0x00, 0x00, 0x00, 0x0d, 0x00, 0x00, 0x00, 0x10, 0x00, 0x00, 0x00,
  0x64, 0x00, 0x00, 0x00, 0x73, 0x65, 0x71, 0x75, 0x65, 0x6e, 0x74, 0x69,
  0x61, 0x6c, 0x2f, 0x63, 0x6f, 0x6e, 0x76, 0x31, 0x64, 0x5f, 0x32, 0x2f,
  0x63, 0x6f, 0x6e, 0x76, 0x31, 0x64, 0x2f, 0x45, 0x78, 0x70, 0x61, 0x6e,
  0x64, 0x44, 0x69, 0x6d, 0x73, 0x3b, 0x53, 0x74, 0x61, 0x74, 0x65, 0x66,
  0x75, 0x6c, 0x50, 0x61, 0x72, 0x74, 0x69, 0x74, 0x69, 0x6f, 0x6e, 0x65,
  0x64, 0x43, 0x61, 0x6c, 0x6c, 0x2f, 0x73, 0x65, 0x71, 0x75, 0x65, 0x6e,
  0x74, 0x69, 0x61, 0x6c, 0x2f, 0x63, 0x6f, 0x6e, 0x76, 0x31, 0x64, 0x5f,
  0x32, 0x2f, 0x63, 0x6f, 0x6e, 0x76, 0x31, 0x64, 0x2f, 0x45, 0x78, 0x70,
  0x61, 0x6e, 0x64, 0x44, 0x69, 0x6d, 0x73, 0x31, 0x00, 0x00, 0x00, 0x00,
  0x00, 0xd4, 0xff, 0xff, 0xfe, 0xf7, 0xff, 0xff, 0x00, 0x00, 0x00, 0x05,
  0x03, 0x00, 0x00, 0x00, 0x28, 0x00, 0x00, 0x00, 0x1c, 0x00, 0x00, 0x00,
  0x04, 0x00, 0x00, 0x00, 0x5e, 0xfb, 0xff, 0xff, 0x02, 0x00, 0x00, 0x00,
  0x01, 0x00, 0x00, 0x00, 0x02, 0x00, 0x00, 0x00, 0x01, 0x00, 0x00, 0x00,
  0x01, 0x00, 0x00, 0x00, 0x24, 0x00, 0x00, 0x00, 0x01, 0x00, 0x00, 0x00,
  0x23, 0x00, 0x00, 0x00, 0x86, 0xd4, 0xff, 0xff, 0x10, 0x00, 0x00, 0x00,
  0x25, 0x00, 0x00, 0x00, 0x1c, 0x00, 0x00, 0x00, 0x7c, 0x00, 0x00, 0x00,
  0x04, 0x00, 0x00, 0x00, 0x01, 0x00, 0x00, 0x00, 0x0d, 0x00, 0x00, 0x00,
  0x01, 0x00, 0x00, 0x00, 0x10, 0x00, 0x00, 0x00, 0x5d, 0x00, 0x00, 0x00,
  0x73, 0x65, 0x71, 0x75, 0x65, 0x6e, 0x74, 0x69, 0x61, 0x6c, 0x2f, 0x6d,
  0x61, 0x78, 0x5f, 0x70, 0x6f, 0x6f, 0x6c, 0x69, 0x6e, 0x67, 0x31, 0x64,
  0x5f, 0x31, 0x2f, 0x4d, 0x61, 0x78, 0x50, 0x6f, 0x6f, 0x6c, 0x3b, 0x53,
  0x74, 0x61, 0x74, 0x65, 0x66, 0x75, 0x6c, 0x50, 0x61, 0x72, 0x74, 0x69,
  0x74, 0x69, 0x6f, 0x6e, 0x65, 0x64, 0x43, 0x61, 0x6c, 0x6c, 0x2f, 0x73,
  0x65, 0x71, 0x75, 0x65, 0x6e, 0x74, 0x69, 0x61, 0x6c, 0x2f, 0x6d, 0x61,
  0x78, 0x5f, 0x70, 0x6f, 0x6f, 0x6c, 0x69, 0x6e, 0x67, 0x31, 0x64, 0x5f,
  0x31, 0x2f, 0x4d, 0x61, 0x78, 0x50, 0x6f, 0x6f, 0x6c, 0x00, 0x00, 0x00,
  0xcc, 0xd4, 0xff, 0xff, 0xf6, 0xf7, 0xff, 0xff, 0x10, 0x00, 0x00, 0x00,
  0x04, 0x00, 0x00, 0x00, 0x01, 0x00, 0x00, 0x00, 0x23, 0x00, 0x00, 0x00,
  0x02, 0x00, 0x00, 0x00, 0x22, 0x00, 0x00, 0x00, 0x14, 0x00, 0x00, 0x00,
  0x36, 0xd5, 0xff, 0xff, 0x10, 0x00, 0x00, 0x00, 0x24, 0x00, 0x00, 0x00,
  0x1c, 0x00, 0x00, 0x00, 0x84, 0x00, 0x00, 0x00, 0x04, 0x00, 0x00, 0x00,
  0x01, 0x00, 0x00, 0x00, 0x19, 0x00, 0x00, 0x00, 0x01, 0x00, 0x00, 0x00,
  0x10, 0x00, 0x00, 0x00, 0x64, 0x00, 0x00, 0x00, 0x73, 0x65, 0x71, 0x75,
  0x65, 0x6e, 0x74, 0x69, 0x61, 0x6c, 0x2f, 0x6d, 0x61, 0x78, 0x5f, 0x70,
  0x6f, 0x6f, 0x6c, 0x69, 0x6e, 0x67, 0x31, 0x64, 0x5f, 0x31, 0x2f, 0x45,
  0x78, 0x70, 0x61, 0x6e, 0x64, 0x44, 0x69, 0x6d, 0x73, 0x3b, 0x53, 0x74,
  0x61, 0x74, 0x65, 0x66, 0x75, 0x6c, 0x50, 0x61, 0x72, 0x74, 0x69, 0x74,
  0x69, 0x6f, 0x6e, 0x65, 0x64, 0x43, 0x61, 0x6c, 0x6c, 0x2f, 0x73, 0x65,
  0x71, 0x75, 0x65, 0x6e, 0x74, 0x69, 0x61, 0x6c, 0x2f, 0x6d, 0x61, 0x78,
  0x5f, 0x70, 0x6f, 0x6f, 0x6c, 0x69, 0x6e, 0x67, 0x31, 0x64, 0x5f, 0x31,
  0x2f, 0x45, 0x78, 0x70, 0x61, 0x6e, 0x64, 0x44, 0x69, 0x6d, 0x73, 0x31,
  0x00, 0x00, 0x00, 0x00, 0x84, 0xd5, 0xff, 0xff, 0x82, 0xf9, 0xff, 0xff,
  0x00, 0x00, 0x00, 0x0b, 0x02, 0x00, 0x00, 0x00, 0x1c, 0x00, 0x00, 0x00,
  0x10, 0x00, 0x00, 0x00, 0x04, 0x00, 0x00, 0x00, 0x3a, 0xfb, 0xff, 0xff,
  0x00, 0x00, 0x00, 0x01, 0x01, 0x00, 0x00, 0x00, 0x22, 0x00, 0x00, 0x00,
  0x02, 0x00, 0x00, 0x00, 0x21, 0x00, 0x00, 0x00, 0x03, 0x00, 0x00, 0x00,
  0x02, 0xd6, 0xff, 0xff, 0x10, 0x00, 0x00, 0x00, 0x23, 0x00, 0x00, 0x00,
  0x18, 0x00, 0x00, 0x00, 0xb4, 0x00, 0x00, 0x00, 0x03, 0x00, 0x00, 0x00,
  0x01, 0x00, 0x00, 0x00, 0x19, 0x00, 0x00, 0x00, 0x10, 0x00, 0x00, 0x00,
  0x99, 0x00, 0x00, 0x00, 0x73, 0x65, 0x71, 0x75, 0x65, 0x6e, 0x74, 0x69,
  0x61, 0x6c, 0x2f, 0x63, 0x6f, 0x6e, 0x76, 0x31, 0x64, 0x5f, 0x31, 0x2f,
  0x52, 0x65, 0x6c, 0x75, 0x3b, 0x53, 0x74, 0x61, 0x74, 0x65, 0x66, 0x75,
  0x6c, 0x50, 0x61, 0x72, 0x74, 0x69, 0x74, 0x69, 0x6f, 0x6e, 0x65, 0x64,
  0x43, 0x61, 0x6c, 0x6c, 0x2f, 0x73, 0x65, 0x71, 0x75, 0x65, 0x6e, 0x74,
  0x69, 0x61, 0x6c, 0x2f, 0x63, 0x6f, 0x6e, 0x76, 0x31, 0x64, 0x5f, 0x31,
  0x2f, 0x52, 0x65, 0x6c, 0x75, 0x3b, 0x73, 0x65, 0x71, 0x75, 0x65, 0x6e,
  0x74, 0x69, 0x61, 0x6c, 0x2f, 0x63, 0x6f, 0x6e, 0x76, 0x31, 0x64, 0x5f,
  0x31, 0x2f, 0x42, 0x69, 0x61, 0x73, 0x41, 0x64, 0x64, 0x3b, 0x53, 0x74,
  0x61, 0x74, 0x65, 0x66, 0x75, 0x6c, 0x50, 0x61, 0x72, 0x74, 0x69, 0x74,
  0x69, 0x6f, 0x6e, 0x65, 0x64, 0x43, 0x61, 0x6c, 0x6c, 0x2f, 0x73, 0x65,
  0x71, 0x75, 0x65, 0x6e, 0x74, 0x69, 0x61, 0x6c, 0x2f, 0x63, 0x6f, 0x6e,
  0x76, 0x31, 0x64, 0x5f, 0x31, 0x2f, 0x42, 0x69, 0x61, 0x73, 0x41, 0x64,
  0x64, 0x00, 0x00, 0x00, 0x80, 0xd6, 0xff, 0xff, 0xaa, 0xf9, 0xff, 0xff,
  0x10, 0x00, 0x00, 0x00, 0x04, 0x00, 0x00, 0x00, 0x01, 0x00, 0x00, 0x00,
  0x21, 0x00, 0x00, 0x00, 0x02, 0x00, 0x00, 0x00, 0x20, 0x00, 0x00, 0x00,
  0x13, 0x00, 0x00, 0x00, 0xea, 0xd6, 0xff, 0xff, 0x10, 0x00, 0x00, 0x00,
  0x22, 0x00, 0x00, 0x00, 0x18, 0x00, 0x00, 0x00, 0x78, 0x00, 0x00, 0x00,
  0x03, 0x00, 0x00, 0x00, 0x01, 0x00, 0x00, 0x00, 0x19, 0x00, 0x00, 0x00,
  0x10, 0x00, 0x00, 0x00, 0x5e, 0x00, 0x00, 0x00, 0x73, 0x65, 0x71, 0x75,
  0x65, 0x6e, 0x74, 0x69, 0x61, 0x6c, 0x2f, 0x63, 0x6f, 0x6e, 0x76, 0x31,
  0x64, 0x5f, 0x31, 0x2f, 0x63, 0x6f, 0x6e, 0x76, 0x31, 0x64, 0x2f, 0x53,
  0x71, 0x75, 0x65, 0x65, 0x7a, 0x65, 0x3b, 0x53, 0x74, 0x61, 0x74, 0x65,
  0x66, 0x75, 0x6c, 0x50, 0x61, 0x72, 0x74, 0x69, 0x74, 0x69, 0x6f, 0x6e,
  0x65, 0x64, 0x43, 0x61, 0x6c, 0x6c, 0x2f, 0x73, 0x65, 0x71, 0x75, 0x65,
  0x6e, 0x74, 0x69, 0x61, 0x6c, 0x2f, 0x63, 0x6f, 0x6e, 0x76, 0x31, 0x64,
  0x5f, 0x31, 0x2f, 0x63, 0x6f, 0x6e, 0x76, 0x31, 0x64, 0x2f, 0x53, 0x71,
  0x75, 0x65, 0x65, 0x7a, 0x65, 0x31, 0x00, 0x00, 0x2c, 0xd7, 0xff, 0xff,
  0x2a, 0xfb, 0xff, 0xff, 0x00, 0x00, 0x00, 0x01, 0x01, 0x00, 0x00, 0x00,
  0x20, 0x00, 0x00, 0x00, 0x14, 0x00, 0x00, 0x00, 0x04, 0x00, 0x00, 0x00,
  0x6e, 0xfa, 0xff, 0xff, 0x01, 0x00, 0x00, 0x00, 0x01, 0x00, 0x00, 0x00,
  0x01, 0x00, 0x00, 0x00, 0x20, 0x00, 0x00, 0x00, 0x03, 0x00, 0x00, 0x00,
  0x1f, 0x00, 0x00, 0x00, 0x0c, 0x00, 0x00, 0x00, 0x0b, 0x00, 0x00, 0x00,
  0xb2, 0xd7, 0xff, 0xff, 0x10, 0x00, 0x00, 0x00, 0x21, 0x00, 0x00, 0x00,
  0x1c, 0x00, 0x00, 0x00, 0x6c, 0x00, 0x00, 0x00, 0x04, 0x00, 0x00, 0x00,
  0x01, 0x00, 0x00, 0x00, 0x01, 0x00, 0x00, 0x00, 0x19, 0x00, 0x00, 0x00,
  0x10, 0x00, 0x00, 0x00, 0x4e, 0x00, 0x00, 0x00, 0x73, 0x65, 0x71, 0x75,
  0x65, 0x6e, 0x74, 0x69, 0x61, 0x6c, 0x2f, 0x63, 0x6f, 0x6e, 0x76, 0x31,
  0x64, 0x5f, 0x31, 0x2f, 0x63, 0x6f, 0x6e, 0x76, 0x31, 0x64, 0x3b, 0x53,
  0x74, 0x61, 0x74, 0x65, 0x66, 0x75, 0x6c, 0x50, 0x61, 0x72, 0x74, 0x69,
  0x74, 0x69, 0x6f, 0x6e, 0x65, 0x64, 0x43, 0x61, 0x6c, 0x6c, 0x2f, 0x73,
  0x65, 0x71, 0x75, 0x65, 0x6e, 0x74, 0x69, 0x61, 0x6c, 0x2f, 0x63, 0x6f,
  0x6e, 0x76, 0x31, 0x64, 0x5f, 0x31, 0x2f, 0x63, 0x6f, 0x6e, 0x76, 0x31,
  0x64, 0x32, 0x00, 0x00, 0xe8, 0xd7, 0xff, 0xff, 0x12, 0xfb, 0xff, 0xff,
  0x10, 0x00, 0x00, 0x00, 0x04, 0x00, 0x00, 0x00, 0x01, 0x00, 0x00, 0x00,
  0x1f, 0x00, 0x00, 0x00, 0x02, 0x00, 0x00, 0x00, 0x1e, 0x00, 0x00, 0x00,
  0x12, 0x00, 0x00, 0x00, 0x52, 0xd8, 0xff, 0xff, 0x10, 0x00, 0x00, 0x00,
  0x20, 0x00, 0x00, 0x00, 0x1c, 0x00, 0x00, 0x00, 0x84, 0x00, 0x00, 0x00,
  0x04, 0x00, 0x00, 0x00, 0x01, 0x00, 0x00, 0x00, 0x01, 0x00, 0x00, 0x00,
  0x19, 0x00, 0x00, 0x00, 0x08, 0x00, 0x00, 0x00, 0x64, 0x00, 0x00, 0x00,
  0x73, 0x65, 0x71, 0x75, 0x65, 0x6e, 0x74, 0x69, 0x61, 0x6c, 0x2f, 0x63,
  0x6f, 0x6e, 0x76, 0x31, 0x64, 0x5f, 0x31, 0x2f, 0x63, 0x6f, 0x6e, 0x76,
  0x31, 0x64, 0x2f, 0x45, 0x78, 0x70, 0x61, 0x6e, 0x64, 0x44, 0x69, 0x6d,
  0x73, 0x3b, 0x53, 0x74, 0x61, 0x74, 0x65, 0x66, 0x75, 0x6c, 0x50, 0x61,
  0x72, 0x74, 0x69, 0x74, 0x69, 0x6f, 0x6e, 0x65, 0x64, 0x43, 0x61, 0x6c,
  0x6c, 0x2f, 0x73, 0x65, 0x71, 0x75, 0x65, 0x6e, 0x74, 0x69, 0x61, 0x6c,
  0x2f, 0x63, 0x6f, 0x6e, 0x76, 0x31, 0x64, 0x5f, 0x31, 0x2f, 0x63, 0x6f,
  0x6e, 0x76, 0x31, 0x64, 0x2f, 0x45, 0x78, 0x70, 0x61, 0x6e, 0x64, 0x44,
  0x69, 0x6d, 0x73, 0x31, 0x00, 0x00, 0x00, 0x00, 0xa0, 0xd8, 0xff, 0xff,
  0x66, 0xfe, 0xff, 0xff, 0x00, 0x00, 0x00, 0x05, 0x03, 0x00, 0x00, 0x00,
  0x38, 0x00, 0x00, 0x00, 0x2c, 0x00, 0x00, 0x00, 0x14, 0x00, 0x00, 0x00,
  0x00, 0x00, 0x0e, 0x00, 0x14, 0x00, 0x00, 0x00, 0x10, 0x00, 0x0c, 0x00,
  0x08, 0x00, 0x04, 0x00, 0x0e, 0x00, 0x00, 0x00, 0x02, 0x00, 0x00, 0x00,
  0x01, 0x00, 0x00, 0x00, 0x02, 0x00, 0x00, 0x00, 0x01, 0x00, 0x00, 0x00,
  0x01, 0x00, 0x00, 0x00, 0x1e, 0x00, 0x00, 0x00, 0x01, 0x00, 0x00, 0x00,
  0x1d, 0x00, 0x00, 0x00, 0xea, 0xfb, 0xff, 0xff, 0x00, 0x00, 0x00, 0x11,
  0x01, 0x00, 0x00, 0x00, 0x42, 0xd9, 0xff, 0xff, 0x10, 0x00, 0x00, 0x00,
  0x1f, 0x00, 0x00, 0x00, 0x1c, 0x00, 0x00, 0x00, 0x78, 0x00, 0x00, 0x00,
  0x04, 0x00, 0x00, 0x00, 0x01, 0x00, 0x00, 0x00, 0x19, 0x00, 0x00, 0x00,
  0x01, 0x00, 0x00, 0x00, 0x08, 0x00, 0x00, 0x00, 0x59, 0x00, 0x00, 0x00,
  0x73, 0x65, 0x71, 0x75, 0x65, 0x6e, 0x74, 0x69, 0x61, 0x6c, 0x2f, 0x6d,
  0x61, 0x78, 0x5f, 0x70, 0x6f, 0x6f, 0x6c, 0x69, 0x6e, 0x67, 0x31, 0x64,
  0x2f, 0x4d, 0x61, 0x78, 0x50, 0x6f, 0x6f, 0x6c, 0x3b, 0x53, 0x74, 0x61,
  0x74, 0x65, 0x66, 0x75, 0x6c, 0x50, 0x61, 0x72, 0x74, 0x69, 0x74, 0x69,
  0x6f, 0x6e, 0x65, 0x64, 0x43, 0x61, 0x6c, 0x6c, 0x2f, 0x73, 0x65, 0x71,
  0x75, 0x65, 0x6e, 0x74, 0x69, 0x61, 0x6c, 0x2f, 0x6d, 0x61, 0x78, 0x5f,
  0x70, 0x6f, 0x6f, 0x6c, 0x69, 0x6e, 0x67, 0x31, 0x64, 0x2f, 0x4d, 0x61,
  0x78, 0x50, 0x6f, 0x6f, 0x6c, 0x00, 0x00, 0x00, 0x84, 0xd9, 0xff, 0xff,
  0xae, 0xfc, 0xff, 0xff, 0x10, 0x00, 0x00, 0x00, 0x04, 0x00, 0x00, 0x00,
  0x01, 0x00, 0x00, 0x00, 0x1d, 0x00, 0x00, 0x00, 0x02, 0x00, 0x00, 0x00,
  0x1c, 0x00, 0x00, 0x00, 0x11, 0x00, 0x00, 0x00, 0xee, 0xd9, 0xff, 0xff,
  0x10, 0x00, 0x00, 0x00, 0x1e, 0x00, 0x00, 0x00, 0x1c, 0x00, 0x00, 0x00,
  0x80, 0x00, 0x00, 0x00, 0x04, 0x00, 0x00, 0x00, 0x01, 0x00, 0x00, 0x00,
  0x31, 0x00, 0x00, 0x00, 0x01, 0x00, 0x00, 0x00, 0x08, 0x00, 0x00, 0x00,
  0x60, 0x00, 0x00, 0x00, 0x73, 0x65, 0x71, 0x75, 0x65, 0x6e, 0x74, 0x69,
  0x61, 0x6c, 0x2f, 0x6d, 0x61, 0x78, 0x5f, 0x70, 0x6f, 0x6f, 0x6c, 0x69,
  0x6e, 0x67, 0x31, 0x64, 0x2f, 0x45, 0x78, 0x70, 0x61, 0x6e, 0x64, 0x44,
  0x69, 0x6d, 0x73, 0x3b, 0x53, 0x74, 0x61, 0x74, 0x65, 0x66, 0x75, 0x6c,
  0x50, 0x61, 0x72, 0x74, 0x69, 0x74, 0x69, 0x6f, 0x6e, 0x65, 0x64, 0x43,
  0x61, 0x6c, 0x6c, 0x2f, 0x73, 0x65, 0x71, 0x75, 0x65, 0x6e, 0x74, 0x69,
  0x61, 0x6c, 0x2f, 0x6d, 0x61, 0x78, 0x5f, 0x70, 0x6f, 0x6f, 0x6c, 0x69,
  0x6e, 0x67, 0x31, 0x64, 0x2f, 0x45, 0x78, 0x70, 0x61, 0x6e, 0x64, 0x44,
  0x69, 0x6d, 0x73, 0x31, 0x00, 0x00, 0x00, 0x00, 0x88, 0xda, 0xff, 0xff,
  0x00, 0x00, 0x0e, 0x00, 0x1a, 0x00, 0x08, 0x00, 0x0c, 0x00, 0x10, 0x00,
  0x07, 0x00, 0x14, 0x00, 0x0e, 0x00, 0x00, 0x00, 0x00, 0x00, 0x00, 0x0b,
  0x02, 0x00, 0x00, 0x00, 0x24, 0x00, 0x00, 0x00, 0x18, 0x00, 0x00, 0x00,
  0x0c, 0x00, 0x00, 0x00, 0x00, 0x00, 0x06, 0x00, 0x08, 0x00, 0x07, 0x00,
  0x06, 0x00, 0x00, 0x00, 0x00, 0x00, 0x00, 0x01, 0x01, 0x00, 0x00, 0x00,
  0x1c, 0x00, 0x00, 0x00, 0x02, 0x00, 0x00, 0x00, 0x1b, 0x00, 0x00, 0x00,
  0x02, 0x00, 0x00, 0x00, 0x00, 0x00, 0x0a, 0x00, 0x08, 0x00, 0x00, 0x00,
  0x00, 0x00, 0x04, 0x00, 0x0a, 0x00, 0x00, 0x00, 0x01, 0x00, 0x00, 0x00,
  0xe2, 0xda, 0xff, 0xff, 0x10, 0x00, 0x00, 0x00, 0x1d, 0x00, 0x00, 0x00,
  0x18, 0x00, 0x00, 0x00, 0xac, 0x00, 0x00, 0x00, 0x03, 0x00, 0x00, 0x00,
  0x01, 0x00, 0x00, 0x00, 0x31, 0x00, 0x00, 0x00, 0x08, 0x00, 0x00, 0x00,
  0x91, 0x00, 0x00, 0x00, 0x73, 0x65, 0x71, 0x75, 0x65, 0x6e, 0x74, 0x69,
  0x61, 0x6c, 0x2f, 0x63, 0x6f, 0x6e, 0x76, 0x31, 0x64, 0x2f, 0x52, 0x65,
  0x6c, 0x75, 0x3b, 0x53, 0x74, 0x61, 0x74, 0x65, 0x66, 0x75, 0x6c, 0x50,
  0x61, 0x72, 0x74, 0x69, 0x74, 0x69, 0x6f, 0x6e, 0x65, 0x64, 0x43, 0x61,
  0x6c, 0x6c, 0x2f, 0x73, 0x65, 0x71, 0x75, 0x65, 0x6e, 0x74, 0x69, 0x61,
  0x6c, 0x2f, 0x63, 0x6f, 0x6e, 0x76, 0x31, 0x64, 0x2f, 0x52, 0x65, 0x6c,
  0x75, 0x3b, 0x73, 0x65, 0x71, 0x75, 0x65, 0x6e, 0x74, 0x69, 0x61, 0x6c,
  0x2f, 0x63, 0x6f, 0x6e, 0x76, 0x31, 0x64, 0x2f, 0x42, 0x69, 0x61, 0x73,
  0x41, 0x64, 0x64, 0x3b, 0x53, 0x74, 0x61, 0x74, 0x65, 0x66, 0x75, 0x6c,
  0x50, 0x61, 0x72, 0x74, 0x69, 0x74, 0x69, 0x6f, 0x6e, 0x65, 0x64, 0x43,
  0x61, 0x6c, 0x6c, 0x2f, 0x73, 0x65, 0x71, 0x75, 0x65, 0x6e, 0x74, 0x69,
  0x61, 0x6c, 0x2f, 0x63, 0x6f, 0x6e, 0x76, 0x31, 0x64, 0x2f, 0x42, 0x69,
  0x61, 0x73, 0x41, 0x64, 0x64, 0x00, 0x00, 0x00, 0x58, 0xdb, 0xff, 0xff,
  0x82, 0xfe, 0xff, 0xff, 0x10, 0x00, 0x00, 0x00, 0x04, 0x00, 0x00, 0x00,
  0x01, 0x00, 0x00, 0x00, 0x1b, 0x00, 0x00, 0x00, 0x02, 0x00, 0x00, 0x00,
  0x1a, 0x00, 0x00, 0x00, 0x10, 0x00, 0x00, 0x00, 0xc2, 0xdb, 0xff, 0xff,
  0x10, 0x00, 0x00, 0x00, 0x1c, 0x00, 0x00, 0x00, 0x18, 0x00, 0x00, 0x00,
  0x74, 0x00, 0x00, 0x00, 0x03, 0x00, 0x00, 0x00, 0x01, 0x00, 0x00, 0x00,
  0x31, 0x00, 0x00, 0x00, 0x08, 0x00, 0x00, 0x00, 0x5a, 0x00, 0x00, 0x00,
  0x73, 0x65, 0x71, 0x75, 0x65, 0x6e, 0x74, 0x69, 0x61, 0x6c, 0x2f, 0x63,
  0x6f, 0x6e, 0x76, 0x31, 0x64, 0x2f, 0x63, 0x6f, 0x6e, 0x76, 0x31, 0x64,
  0x2f, 0x53, 0x71, 0x75, 0x65, 0x65, 0x7a, 0x65, 0x3b, 0x53, 0x74, 0x61,
  0x74, 0x65, 0x66, 0x75, 0x6c, 0x50, 0x61, 0x72, 0x74, 0x69, 0x74, 0x69,
  0x6f, 0x6e, 0x65, 0x64, 0x43, 0x61, 0x6c, 0x6c, 0x2f, 0x73, 0x65, 0x71,
  0x75, 0x65, 0x6e, 0x74, 0x69, 0x61, 0x6c, 0x2f, 0x63, 0x6f, 0x6e, 0x76,
  0x31, 0x64, 0x2f, 0x63, 0x6f, 0x6e, 0x76, 0x31, 0x64, 0x2f, 0x53, 0x71,
  0x75, 0x65, 0x65, 0x7a, 0x65, 0x31, 0x00, 0x00, 0x50, 0xdc, 0xff, 0xff,
  0x00, 0x00, 0x0e, 0x00, 0x18, 0x00, 0x08, 0x00, 0x0c, 0x00, 0x10, 0x00,
  0x07, 0x00, 0x14, 0x00, 0x0e, 0x00, 0x00, 0x00, 0x00, 0x00, 0x00, 0x01,
  0x01, 0x00, 0x00, 0x00, 0x20, 0x00, 0x00, 0x00, 0x14, 0x00, 0x00, 0x00,
  0x04, 0x00, 0x00, 0x00, 0x52, 0xff, 0xff, 0xff, 0x01, 0x00, 0x00, 0x00,
  0x01, 0x00, 0x00, 0x00, 0x01, 0x00, 0x00, 0x00, 0x1a, 0x00, 0x00, 0x00,
  0x03, 0x00, 0x00, 0x00, 0x19, 0x00, 0x00, 0x00, 0x0a, 0x00, 0x00, 0x00,
  0x0d, 0x00, 0x00, 0x00, 0x4a, 0xff, 0xff, 0xff, 0x00, 0x00, 0x00, 0x03,
  0x01, 0x00, 0x00, 0x00, 0xa2, 0xdc, 0xff, 0xff, 0x10, 0x00, 0x00, 0x00,
  0x1b, 0x00, 0x00, 0x00, 0x1c, 0x00, 0x00, 0x00, 0x68, 0x00, 0x00, 0x00,
  0x04, 0x00, 0x00, 0x00, 0x01, 0x00, 0x00, 0x00, 0x01, 0x00, 0x00, 0x00,
  0x31, 0x00, 0x00, 0x00, 0x08, 0x00, 0x00, 0x00, 0x4a, 0x00, 0x00, 0x00,
  0x73, 0x65, 0x71, 0x75, 0x65, 0x6e, 0x74, 0x69, 0x61, 0x6c, 0x2f, 0x63,
  0x6f, 0x6e, 0x76, 0x31, 0x64, 0x2f, 0x63, 0x6f, 0x6e, 0x76, 0x31, 0x64,
  0x3b, 0x53, 0x74, 0x61, 0x74, 0x65, 0x66, 0x75, 0x6c, 0x50, 0x61, 0x72,
  0x74, 0x69, 0x74, 0x69, 0x6f, 0x6e, 0x65, 0x64, 0x43, 0x61, 0x6c, 0x6c,
  0x2f, 0x73, 0x65, 0x71, 0x75, 0x65, 0x6e, 0x74, 0x69, 0x61, 0x6c, 0x2f,
  0x63, 0x6f, 0x6e, 0x76, 0x31, 0x64, 0x2f, 0x63, 0x6f, 0x6e, 0x76, 0x31,
  0x64, 0x31, 0x00, 0x00, 0x24, 0xdd, 0xff, 0xff, 0x00, 0x00, 0x0a, 0x00,
  0x0c, 0x00, 0x00, 0x00, 0x04, 0x00, 0x08, 0x00, 0x0a, 0x00, 0x00, 0x00,
  0x10, 0x00, 0x00, 0x00, 0x04, 0x00, 0x00, 0x00, 0x01, 0x00, 0x00, 0x00,
  0x19, 0x00, 0x00, 0x00, 0x02, 0x00, 0x00, 0x00, 0x00, 0x00, 0x00, 0x00,
  0x0f, 0x00, 0x00, 0x00, 0x00, 0x00, 0x0a, 0x00, 0x0c, 0x00, 0x07, 0x00,
  0x00, 0x00, 0x08, 0x00, 0x0a, 0x00, 0x00, 0x00, 0x00, 0x00, 0x00, 0x16,
  0x01, 0x00, 0x00, 0x00, 0x62, 0xdd, 0xff, 0xff, 0x10, 0x00, 0x00, 0x00,
  0x1a, 0x00, 0x00, 0x00, 0x1c, 0x00, 0x00, 0x00, 0x80, 0x00, 0x00, 0x00,
  0x04, 0x00, 0x00, 0x00, 0x01, 0x00, 0x00, 0x00, 0x01, 0x00, 0x00, 0x00,
  0x31, 0x00, 0x00, 0x00, 0x0d, 0x00, 0x00, 0x00, 0x60, 0x00, 0x00, 0x00,
  0x73, 0x65, 0x71, 0x75, 0x65, 0x6e, 0x74, 0x69, 0x61, 0x6c, 0x2f, 0x63,
  0x6f, 0x6e, 0x76, 0x31, 0x64, 0x2f, 0x63, 0x6f, 0x6e, 0x76, 0x31, 0x64,
  0x2f, 0x45, 0x78, 0x70, 0x61, 0x6e, 0x64, 0x44, 0x69, 0x6d, 0x73, 0x3b,
  0x53, 0x74, 0x61, 0x74, 0x65, 0x66, 0x75, 0x6c, 0x50, 0x61, 0x72, 0x74,
  0x69, 0x74, 0x69, 0x6f, 0x6e, 0x65, 0x64, 0x43, 0x61, 0x6c, 0x6c, 0x2f,
  0x73, 0x65, 0x71, 0x75, 0x65, 0x6e, 0x74, 0x69, 0x61, 0x6c, 0x2f, 0x63,
  0x6f, 0x6e, 0x76, 0x31, 0x64, 0x2f, 0x63, 0x6f, 0x6e, 0x76, 0x31, 0x64,
  0x2f, 0x45, 0x78, 0x70, 0x61, 0x6e, 0x64, 0x44, 0x69, 0x6d, 0x73, 0x31,
  0x00, 0x00, 0x00, 0x00, 0xac, 0xdd, 0xff, 0xff, 0x9a, 0xde, 0xff, 0xff,
  0x04, 0x00, 0x00, 0x00, 0x0c, 0x00, 0x00, 0x00, 0x01, 0x00, 0x00, 0x00,
  0x07, 0x00, 0x00, 0x00, 0x08, 0x00, 0x00, 0x00, 0x96, 0xde, 0xff, 0xff,
  0x00, 0x00, 0x00, 0x02, 0x10, 0x00, 0x00, 0x00, 0x19, 0x00, 0x00, 0x00,
  0x10, 0x00, 0x00, 0x00, 0x70, 0x00, 0x00, 0x00, 0x01, 0x00, 0x00, 0x00,
  0x03, 0x00, 0x00, 0x00, 0x5d, 0x00, 0x00, 0x00, 0x73, 0x65, 0x71, 0x75,
  0x65, 0x6e, 0x74, 0x69, 0x61, 0x6c, 0x2f, 0x6d, 0x61, 0x78, 0x5f, 0x70,
  0x6f, 0x6f, 0x6c, 0x69, 0x6e, 0x67, 0x31, 0x64, 0x5f, 0x32, 0x2f, 0x53,
  0x71, 0x75, 0x65, 0x65, 0x7a, 0x65, 0x3b, 0x53, 0x74, 0x61, 0x74, 0x65,
  0x66, 0x75, 0x6c, 0x50, 0x61, 0x72, 0x74, 0x69, 0x74, 0x69, 0x6f, 0x6e,
  0x65, 0x64, 0x43, 0x61, 0x6c, 0x6c, 0x2f, 0x73, 0x65, 0x71, 0x75, 0x65,
  0x6e, 0x74, 0x69, 0x61, 0x6c, 0x2f, 0x6d, 0x61, 0x78, 0x5f, 0x70, 0x6f,
  0x6f, 0x6c, 0x69, 0x6e, 0x67, 0x31, 0x64, 0x5f, 0x32, 0x2f, 0x53, 0x71,
  0x75, 0x65, 0x65, 0x7a, 0x65, 0x00, 0x00, 0x00, 0x4c, 0xde, 0xff, 0xff,
  0x3a, 0xdf, 0xff, 0xff, 0x04, 0x00, 0x00, 0x00, 0x10, 0x00, 0x00, 0x00,
  0x01, 0x00, 0x00, 0x00, 0x0d, 0x00, 0x00, 0x00, 0x01, 0x00, 0x00, 0x00,
  0x08, 0x00, 0x00, 0x00, 0x3a, 0xdf, 0xff, 0xff, 0x00, 0x00, 0x00, 0x02,
  0x10, 0x00, 0x00, 0x00, 0x18, 0x00, 0x00, 0x00, 0x10, 0x00, 0x00, 0x00,
  0x74, 0x00, 0x00, 0x00, 0x01, 0x00, 0x00, 0x00, 0x04, 0x00, 0x00, 0x00,
  0x63, 0x00, 0x00, 0x00, 0x73, 0x65, 0x71, 0x75, 0x65, 0x6e, 0x74, 0x69,
  0x61, 0x6c, 0x2f, 0x6d, 0x61, 0x78, 0x5f, 0x70, 0x6f, 0x6f, 0x6c, 0x69,
  0x6e, 0x67, 0x31, 0x64, 0x5f, 0x32, 0x2f, 0x45, 0x78, 0x70, 0x61, 0x6e,
  0x64, 0x44, 0x69, 0x6d, 0x73, 0x3b, 0x53, 0x74, 0x61, 0x74, 0x65, 0x66,
  0x75, 0x6c, 0x50, 0x61, 0x72, 0x74, 0x69, 0x74, 0x69, 0x6f, 0x6e, 0x65,
  0x64, 0x43, 0x61, 0x6c, 0x6c, 0x2f, 0x73, 0x65, 0x71, 0x75, 0x65, 0x6e,
  0x74, 0x69, 0x61, 0x6c, 0x2f, 0x6d, 0x61, 0x78, 0x5f, 0x70, 0x6f, 0x6f,
  0x6c, 0x69, 0x6e, 0x67, 0x31, 0x64, 0x5f, 0x32, 0x2f, 0x45, 0x78, 0x70,
  0x61, 0x6e, 0x64, 0x44, 0x69, 0x6d, 0x73, 0x00, 0xf4, 0xde, 0xff, 0xff,
  0xe2, 0xdf, 0xff, 0xff, 0x04, 0x00, 0x00, 0x00, 0x0c, 0x00, 0x00, 0x00,
  0x01, 0x00, 0x00, 0x00, 0x0d, 0x00, 0x00, 0x00, 0x08, 0x00, 0x00, 0x00,
  0xde, 0xdf, 0xff, 0xff, 0x00, 0x00, 0x00, 0x02, 0x10, 0x00, 0x00, 0x00,
  0x17, 0x00, 0x00, 0x00, 0x10, 0x00, 0x00, 0x00, 0x70, 0x00, 0x00, 0x00,
  0x01, 0x00, 0x00, 0x00, 0x03, 0x00, 0x00, 0x00, 0x5d, 0x00, 0x00, 0x00,
  0x73, 0x65, 0x71, 0x75, 0x65, 0x6e, 0x74, 0x69, 0x61, 0x6c, 0x2f, 0x63,
  0x6f, 0x6e, 0x76, 0x31, 0x64, 0x5f, 0x32, 0x2f, 0x63, 0x6f, 0x6e, 0x76,
  0x31, 0x64, 0x2f, 0x53, 0x71, 0x75, 0x65, 0x65, 0x7a, 0x65, 0x3b, 0x53,
  0x74, 0x61, 0x74, 0x65, 0x66, 0x75, 0x6c, 0x50, 0x61, 0x72, 0x74, 0x69,
  0x74, 0x69, 0x6f, 0x6e, 0x65, 0x64, 0x43, 0x61, 0x6c, 0x6c, 0x2f, 0x73,
  0x65, 0x71, 0x75, 0x65, 0x6e, 0x74, 0x69, 0x61, 0x6c, 0x2f, 0x63, 0x6f,
  0x6e, 0x76, 0x31, 0x64, 0x5f, 0x32, 0x2f, 0x63, 0x6f, 0x6e, 0x76, 0x31,
  0x64, 0x2f, 0x53, 0x71, 0x75, 0x65, 0x65, 0x7a, 0x65, 0x00, 0x00, 0x00,
  0x94, 0xdf, 0xff, 0xff, 0x82, 0xe0, 0xff, 0xff, 0x04, 0x00, 0x00, 0x00,
  0x10, 0x00, 0x00, 0x00, 0x01, 0x00, 0x00, 0x00, 0x01, 0x00, 0x00, 0x00,
  0x0d, 0x00, 0x00, 0x00, 0x10, 0x00, 0x00, 0x00, 0x82, 0xe0, 0xff, 0xff,
  0x00, 0x00, 0x00, 0x02, 0x10, 0x00, 0x00, 0x00, 0x16, 0x00, 0x00, 0x00,
  0x10, 0x00, 0x00, 0x00, 0x74, 0x00, 0x00, 0x00, 0x01, 0x00, 0x00, 0x00,
  0x04, 0x00, 0x00, 0x00, 0x63, 0x00, 0x00, 0x00, 0x73, 0x65, 0x71, 0x75,
  0x65, 0x6e, 0x74, 0x69, 0x61, 0x6c, 0x2f, 0x63, 0x6f, 0x6e, 0x76, 0x31,
  0x64, 0x5f, 0x32, 0x2f, 0x63, 0x6f, 0x6e, 0x76, 0x31, 0x64, 0x2f, 0x45,
  0x78, 0x70, 0x61, 0x6e, 0x64, 0x44, 0x69, 0x6d, 0x73, 0x3b, 0x53, 0x74,
  0x61, 0x74, 0x65, 0x66, 0x75, 0x6c, 0x50, 0x61, 0x72, 0x74, 0x69, 0x74,
  0x69, 0x6f, 0x6e, 0x65, 0x64, 0x43, 0x61, 0x6c, 0x6c, 0x2f, 0x73, 0x65,
  0x71, 0x75, 0x65, 0x6e, 0x74, 0x69, 0x61, 0x6c, 0x2f, 0x63, 0x6f, 0x6e,
  0x76, 0x31, 0x64, 0x5f, 0x32, 0x2f, 0x63, 0x6f, 0x6e, 0x76, 0x31, 0x64,
  0x2f, 0x45, 0x78, 0x70, 0x61, 0x6e, 0x64, 0x44, 0x69, 0x6d, 0x73, 0x00,
  0x3c, 0xe0, 0xff, 0xff, 0x2a, 0xe1, 0xff, 0xff, 0x04, 0x00, 0x00, 0x00,
  0x10, 0x00, 0x00, 0x00, 0x01, 0x00, 0x00, 0x00, 0x19, 0x00, 0x00, 0x00,
  0x01, 0x00, 0x00, 0x00, 0x10, 0x00, 0x00, 0x00, 0x2a, 0xe1, 0xff, 0xff,
  0x00, 0x00, 0x00, 0x02, 0x10, 0x00, 0x00, 0x00, 0x15, 0x00, 0x00, 0x00,
  0x10, 0x00, 0x00, 0x00, 0x74, 0x00, 0x00, 0x00, 0x01, 0x00, 0x00, 0x00,
  0x04, 0x00, 0x00, 0x00, 0x63, 0x00, 0x00, 0x00, 0x73, 0x65, 0x71, 0x75,
  0x65, 0x6e, 0x74, 0x69, 0x61, 0x6c, 0x2f, 0x6d, 0x61, 0x78, 0x5f, 0x70,
  0x6f, 0x6f, 0x6c, 0x69, 0x6e, 0x67, 0x31, 0x64, 0x5f, 0x31, 0x2f, 0x45,
  0x78, 0x70, 0x61, 0x6e, 0x64, 0x44, 0x69, 0x6d, 0x73, 0x3b, 0x53, 0x74,
  0x61, 0x74, 0x65, 0x66, 0x75, 0x6c, 0x50, 0x61, 0x72, 0x74, 0x69, 0x74,
  0x69, 0x6f, 0x6e, 0x65, 0x64, 0x43, 0x61, 0x6c, 0x6c, 0x2f, 0x73, 0x65,
  0x71, 0x75, 0x65, 0x6e, 0x74, 0x69, 0x61, 0x6c, 0x2f, 0x6d, 0x61, 0x78,
  0x5f, 0x70, 0x6f, 0x6f, 0x6c, 0x69, 0x6e, 0x67, 0x31, 0x64, 0x5f, 0x31,
  0x2f, 0x45, 0x78, 0x70, 0x61, 0x6e, 0x64, 0x44, 0x69, 0x6d, 0x73, 0x00,
  0xe4, 0xe0, 0xff, 0xff, 0xd2, 0xe1, 0xff, 0xff, 0x04, 0x00, 0x00, 0x00,
  0x0c, 0x00, 0x00, 0x00, 0x01, 0x00, 0x00, 0x00, 0x19, 0x00, 0x00, 0x00,
  0x10, 0x00, 0x00, 0x00, 0xce, 0xe1, 0xff, 0xff, 0x00, 0x00, 0x00, 0x02,
  0x10, 0x00, 0x00, 0x00, 0x14, 0x00, 0x00, 0x00, 0x10, 0x00, 0x00, 0x00,
  0x70, 0x00, 0x00, 0x00, 0x01, 0x00, 0x00, 0x00, 0x03, 0x00, 0x00, 0x00,
  0x5d, 0x00, 0x00, 0x00, 0x73, 0x65, 0x71, 0x75, 0x65, 0x6e, 0x74, 0x69,
  0x61, 0x6c, 0x2f, 0x63, 0x6f, 0x6e, 0x76, 0x31, 0x64, 0x5f, 0x31, 0x2f,
  0x63, 0x6f, 0x6e, 0x76, 0x31, 0x64, 0x2f, 0x53, 0x71, 0x75, 0x65, 0x65,
  0x7a, 0x65, 0x3b, 0x53, 0x74, 0x61, 0x74, 0x65, 0x66, 0x75, 0x6c, 0x50,
  0x61, 0x72, 0x74, 0x69, 0x74, 0x69, 0x6f, 0x6e, 0x65, 0x64, 0x43, 0x61,
  0x6c, 0x6c, 0x2f, 0x73, 0x65, 0x71, 0x75, 0x65, 0x6e, 0x74, 0x69, 0x61,
  0x6c, 0x2f, 0x63, 0x6f, 0x6e, 0x76, 0x31, 0x64, 0x5f, 0x31, 0x2f, 0x63,
  0x6f, 0x6e, 0x76, 0x31, 0x64, 0x2f, 0x53, 0x71, 0x75, 0x65, 0x65, 0x7a,
  0x65, 0x00, 0x00, 0x00, 0x84, 0xe1, 0xff, 0xff, 0x72, 0xe2, 0xff, 0xff,
  0x04, 0x00, 0x00, 0x00, 0x10, 0x00, 0x00, 0x00, 0x01, 0x00, 0x00, 0x00,
  0x01, 0x00, 0x00, 0x00, 0x19, 0x00, 0x00, 0x00, 0x08, 0x00, 0x00, 0x00,
  0x72, 0xe2, 0xff, 0xff, 0x00, 0x00, 0x00, 0x02, 0x10, 0x00, 0x00, 0x00,
  0x13, 0x00, 0x00, 0x00, 0x10, 0x00, 0x00, 0x00, 0x74, 0x00, 0x00, 0x00,
  0x01, 0x00, 0x00, 0x00, 0x04, 0x00, 0x00, 0x00, 0x63, 0x00, 0x00, 0x00,
  0x73, 0x65, 0x71, 0x75, 0x65, 0x6e, 0x74, 0x69, 0x61, 0x6c, 0x2f, 0x63,
  0x6f, 0x6e, 0x76, 0x31, 0x64, 0x5f, 0x31, 0x2f, 0x63, 0x6f, 0x6e, 0x76,
  0x31, 0x64, 0x2f, 0x45, 0x78, 0x70, 0x61, 0x6e, 0x64, 0x44, 0x69, 0x6d,
  0x73, 0x3b, 0x53, 0x74, 0x61, 0x74, 0x65, 0x66, 0x75, 0x6c, 0x50, 0x61,
  0x72, 0x74, 0x69, 0x74, 0x69, 0x6f, 0x6e, 0x65, 0x64, 0x43, 0x61, 0x6c,
  0x6c, 0x2f, 0x73, 0x65, 0x71, 0x75, 0x65, 0x6e, 0x74, 0x69, 0x61, 0x6c,
  0x2f, 0x63, 0x6f, 0x6e, 0x76, 0x31, 0x64, 0x5f, 0x31, 0x2f, 0x63, 0x6f,
  0x6e, 0x76, 0x31, 0x64, 0x2f, 0x45, 0x78, 0x70, 0x61, 0x6e, 0x64, 0x44,
  0x69, 0x6d, 0x73, 0x00, 0x2c, 0xe2, 0xff, 0xff, 0x1a, 0xe3, 0xff, 0xff,
  0x04, 0x00, 0x00, 0x00, 0x10, 0x00, 0x00, 0x00, 0x01, 0x00, 0x00, 0x00,
  0x31, 0x00, 0x00, 0x00, 0x01, 0x00, 0x00, 0x00, 0x08, 0x00, 0x00, 0x00,
  0x1a, 0xe3, 0xff, 0xff, 0x00, 0x00, 0x00, 0x02, 0x10, 0x00, 0x00, 0x00,
  0x12, 0x00, 0x00, 0x00, 0x10, 0x00, 0x00, 0x00, 0x70, 0x00, 0x00, 0x00,
  0x01, 0x00, 0x00, 0x00, 0x04, 0x00, 0x00, 0x00, 0x5f, 0x00, 0x00, 0x00,
  0x73, 0x65, 0x71, 0x75, 0x65, 0x6e, 0x74, 0x69, 0x61, 0x6c, 0x2f, 0x6d,
  0x61, 0x78, 0x5f, 0x70, 0x6f, 0x6f, 0x6c, 0x69, 0x6e, 0x67, 0x31, 0x64,
  0x2f, 0x45, 0x78, 0x70, 0x61, 0x6e, 0x64, 0x44, 0x69, 0x6d, 0x73, 0x3b,
  0x53, 0x74, 0x61, 0x74, 0x65, 0x66, 0x75, 0x6c, 0x50, 0x61, 0x72, 0x74,
  0x69, 0x74, 0x69, 0x6f, 0x6e, 0x65, 0x64, 0x43, 0x61, 0x6c, 0x6c, 0x2f,
  0x73, 0x65, 0x71, 0x75, 0x65, 0x6e, 0x74, 0x69, 0x61, 0x6c, 0x2f, 0x6d,
  0x61, 0x78, 0x5f, 0x70, 0x6f, 0x6f, 0x6c, 0x69, 0x6e, 0x67, 0x31, 0x64,
  0x2f, 0x45, 0x78, 0x70, 0x61, 0x6e, 0x64, 0x44, 0x69, 0x6d, 0x73, 0x00,
  0xd0, 0xe2, 0xff, 0xff, 0xbe, 0xe3, 0xff, 0xff, 0x04, 0x00, 0x00, 0x00,
  0x0c, 0x00, 0x00, 0x00, 0x01, 0x00, 0x00, 0x00, 0x31, 0x00, 0x00, 0x00,
  0x08, 0x00, 0x00, 0x00, 0xba, 0xe3, 0xff, 0xff, 0x00, 0x00, 0x00, 0x02,
  0x10, 0x00, 0x00, 0x00, 0x11, 0x00, 0x00, 0x00, 0x10, 0x00, 0x00, 0x00,
  0x6c, 0x00, 0x00, 0x00, 0x01, 0x00, 0x00, 0x00, 0x03, 0x00, 0x00, 0x00,
  0x59, 0x00, 0x00, 0x00, 0x73, 0x65, 0x71, 0x75, 0x65, 0x6e, 0x74, 0x69,
  0x61, 0x6c, 0x2f, 0x63, 0x6f, 0x6e, 0x76, 0x31, 0x64, 0x2f, 0x63, 0x6f,
  0x6e, 0x76, 0x31, 0x64, 0x2f, 0x53, 0x71, 0x75, 0x65, 0x65, 0x7a, 0x65,
  0x3b, 0x53, 0x74, 0x61, 0x74, 0x65, 0x66, 0x75, 0x6c, 0x50, 0x61, 0x72,
  0x74, 0x69, 0x74, 0x69, 0x6f, 0x6e, 0x65, 0x64, 0x43, 0x61, 0x6c, 0x6c,
  0x2f, 0x73, 0x65, 0x71, 0x75, 0x65, 0x6e, 0x74, 0x69, 0x61, 0x6c, 0x2f,
  0x63, 0x6f, 0x6e, 0x76, 0x31, 0x64, 0x2f, 0x63, 0x6f, 0x6e, 0x76, 0x31,
  0x64, 0x2f, 0x53, 0x71, 0x75, 0x65, 0x65, 0x7a, 0x65, 0x00, 0x00, 0x00,
  0x6c, 0xe3, 0xff, 0xff, 0x5a, 0xe4, 0xff, 0xff, 0x04, 0x00, 0x00, 0x00,
  0x10, 0x00, 0x00, 0x00, 0x01, 0x00, 0x00, 0x00, 0x01, 0x00, 0x00, 0x00,
  0x31, 0x00, 0x00, 0x00, 0x0d, 0x00, 0x00, 0x00, 0x5a, 0xe4, 0xff, 0xff,
  0x00, 0x00, 0x00, 0x02, 0x10, 0x00, 0x00, 0x00, 0x10, 0x00, 0x00, 0x00,
  0x10, 0x00, 0x00, 0x00, 0x70, 0x00, 0x00, 0x00, 0x01, 0x00, 0x00, 0x00,
  0x04, 0x00, 0x00, 0x00, 0x5f, 0x00, 0x00, 0x00, 0x73, 0x65, 0x71, 0x75,
  0x65, 0x6e, 0x74, 0x69, 0x61, 0x6c, 0x2f, 0x63, 0x6f, 0x6e, 0x76, 0x31,
  0x64, 0x2f, 0x63, 0x6f, 0x6e, 0x76, 0x31, 0x64, 0x2f, 0x45, 0x78, 0x70,
  0x61, 0x6e, 0x64, 0x44, 0x69, 0x6d, 0x73, 0x3b, 0x53, 0x74, 0x61, 0x74,
  0x65, 0x66, 0x75, 0x6c, 0x50, 0x61, 0x72, 0x74, 0x69, 0x74, 0x69, 0x6f,
  0x6e, 0x65, 0x64, 0x43, 0x61, 0x6c, 0x6c, 0x2f, 0x73, 0x65, 0x71, 0x75,
  0x65, 0x6e, 0x74, 0x69, 0x61, 0x6c, 0x2f, 0x63, 0x6f, 0x6e, 0x76, 0x31,
  0x64, 0x2f, 0x63, 0x6f, 0x6e, 0x76, 0x31, 0x64, 0x2f, 0x45, 0x78, 0x70,
  0x61, 0x6e, 0x64, 0x44, 0x69, 0x6d, 0x73, 0x00, 0x10, 0xe4, 0xff, 0xff,
  0xfe, 0xe4, 0xff, 0xff, 0x04, 0x00, 0x00, 0x00, 0x00, 0x06, 0x00, 0x00,
  0x59, 0x1b, 0xab, 0xbe, 0x82, 0xd4, 0x2b, 0x3c, 0xf4, 0xfd, 0xa6, 0x3e,
  0xe0, 0x37, 0xb5, 0xbe, 0x53, 0xad, 0x98, 0xbe, 0xbf, 0xef, 0x30, 0x3e,
  0x47, 0x50, 0xde, 0xbe, 0xf9, 0xf6, 0x80, 0xbd, 0x86, 0x2a, 0x3c, 0xbd,
  0x13, 0xbe, 0xe4, 0x3e, 0x1b, 0x54, 0x64, 0x3e, 0x0c, 0x9b, 0x1b, 0xbf,
  0xab, 0x62, 0x1e, 0x3e, 0xf8, 0xd6, 0x9c, 0x3d, 0xaa, 0x86, 0x0d, 0x3f,
  0xa6, 0x3b, 0x0e, 0x3e, 0x6e, 0x31, 0xa2, 0x3e, 0xd4, 0xe3, 0x5d, 0x3e,
  0x74, 0x36, 0x47, 0xbe, 0x4c, 0xae, 0x93, 0xbd, 0xf6, 0xc1, 0xf6, 0xbd,
  0x4e, 0xbf, 0x92, 0xbe, 0xf1, 0x01, 0xa6, 0xbd, 0x2e, 0xe1, 0x21, 0xbf,
  0xd2, 0xb2, 0x91, 0xbe, 0x42, 0x11, 0xa2, 0xbe, 0x46, 0x43, 0xac, 0x3d,
  0x06, 0x2a, 0xf5, 0xbe, 0x0b, 0x09, 0x98, 0x3d, 0xab, 0x49, 0x7a, 0x3e,
  0x27, 0xe3, 0x34, 0xbd, 0x73, 0x32, 0x36, 0x3d, 0x6b, 0x54, 0x22, 0x3e,
  0x62, 0xb4, 0x6f, 0xbe, 0xa5, 0x5f, 0x51, 0xbe, 0x6b, 0xb3, 0xfa, 0x3d,
  0x7d, 0x60, 0x87, 0xbe, 0x9b, 0x31, 0x2a, 0xbf, 0x8e, 0xf6, 0x89, 0xbe,
  0x5f, 0x95, 0x4d, 0xbf, 0x1e, 0xa1, 0xf3, 0xbe, 0xef, 0xd2, 0x20, 0xbf,
  0xc7, 0x22, 0x71, 0xbd, 0xe3, 0x4f, 0xb3, 0xbe, 0xe7, 0x4e, 0xb5, 0xbc,
  0xda, 0x3b, 0x68, 0xbe, 0x57, 0xa7, 0xb8, 0xbd, 0x7a, 0x51, 0xaf, 0xbe,
  0x14, 0x37, 0xe3, 0x3d, 0x6e, 0xa7, 0xe7, 0xbd, 0xef, 0xbe, 0x56, 0x3e,
  0x9b, 0xf2, 0x8a, 0x3e, 0x47, 0xdf, 0xaf, 0x3e, 0x89, 0x57, 0xd8, 0xbd,
  0x59, 0x45, 0x15, 0xbf, 0xd8, 0xd5, 0xdc, 0x3d, 0xa2, 0xe0, 0x92, 0xbe,
  0x5a, 0xa5, 0xf6, 0x3d, 0x70, 0x51, 0xc0, 0xbd, 0x80, 0x6c, 0x3a, 0xbe,
  0xa2, 0x97, 0x08, 0x3f, 0x7a, 0x32, 0xc2, 0xbe, 0x34, 0xf5, 0x72, 0xbd,
  0x54, 0xc0, 0xab, 0x3d, 0x1e, 0xe8, 0x34, 0xbe, 0x8e, 0x59, 0xfe, 0xbe,
  0x33, 0xeb, 0xb0, 0x3d, 0x59, 0xa9, 0x43, 0x3d, 0x9a, 0x41, 0xb7, 0x3d,
  0xa9, 0x7d, 0x5f, 0x3e, 0xcd, 0xd6, 0xe4, 0xbe, 0x80, 0x66, 0x84, 0x3e,
  0x9d, 0xe4, 0x5a, 0xbe, 0x6d, 0x23, 0x2b, 0x3e, 0x48, 0xf5, 0x13, 0xbd,
  0x9c, 0xb1, 0x49, 0xbe, 0xb6, 0x9d, 0x57, 0x3e, 0x0f, 0x88, 0x26, 0xbf,
  0x32, 0xd0, 0x28, 0x3e, 0x4f, 0x52, 0xdd, 0xbe, 0x4f, 0xdd, 0x20, 0xbd,
  0x29, 0xc1, 0xff, 0xbe, 0x92, 0x7c, 0x83, 0x3e, 0x8d, 0x72, 0x33, 0xbd,
  0x96, 0x9c, 0xf0, 0x3e, 0x54, 0xd0, 0xde, 0x3e, 0x97, 0xc5, 0xde, 0xbe,
  0xe3, 0xfa, 0xa6, 0x3e, 0x28, 0x52, 0xca, 0xbe, 0x6c, 0x31, 0xc1, 0x3e,
  0x42, 0x50, 0x72, 0xbf, 0x94, 0x71, 0x93, 0xbe, 0x31, 0x54, 0x0f, 0x3e,
  0x9b, 0x9c, 0x05, 0xbf, 0xff, 0x08, 0xfc, 0xbe, 0xe9, 0x9a, 0x06, 0xbe,
  0x84, 0x59, 0x1b, 0xbf, 0x03, 0xe1, 0x84, 0xbe, 0xc9, 0x5b, 0xa6, 0x3e,
  0x60, 0xd7, 0x9c, 0xbd, 0x99, 0xcc, 0x5f, 0x3e, 0x07, 0x93, 0xc6, 0x3e,
  0xc1, 0x56, 0x3b, 0xbe, 0x89, 0x57, 0x94, 0x3e, 0xb4, 0xa4, 0x8d, 0x3e,
  0x21, 0x0e, 0x0d, 0xbe, 0xe3, 0x46, 0xcd, 0x3e, 0x35, 0xb5, 0x2e, 0xbf,
  0x53, 0x98, 0xeb, 0x3d, 0xbb, 0x98, 0x86, 0xbe, 0xf5, 0xbc, 0x91, 0xbe,
  0xa4, 0x67, 0x53, 0xbe, 0x87, 0xec, 0xa9, 0xbd, 0xe0, 0x7e, 0xdb, 0x3e,
  0xad, 0x6d, 0xae, 0xbe, 0xf9, 0x94, 0x93, 0x3e, 0x38, 0x15, 0x1a, 0xbe,
  0xb6, 0x63, 0x0d, 0x3d, 0xe4, 0xf1, 0x5f, 0xbf, 0x05, 0x33, 0x12, 0xbe,
  0x5a, 0x44, 0x07, 0x3f, 0xa0, 0x7a, 0x9b, 0xbe, 0x48, 0x68, 0x25, 0xbe,
  0xde, 0x5f, 0x3c, 0x3e, 0xe7, 0xeb, 0x44, 0xbe, 0x91, 0x86, 0x8f, 0x3e,
  0x9f, 0xca, 0x00, 0xbf, 0x9a, 0x45, 0xbf, 0x3d, 0xa1, 0x06, 0x10, 0xbf,
  0xef, 0x7b, 0xbe, 0xbe, 0x92, 0x2b, 0xbb, 0xbe, 0x53, 0xe1, 0x99, 0xbd,
  0x4c, 0x5f, 0x62, 0xbf, 0xc3, 0x05, 0x74, 0xbe, 0x3d, 0x8a, 0x91, 0xbe,
  0x70, 0xf9, 0xee, 0xbe, 0x0c, 0x15, 0x70, 0x3e, 0xfe, 0x53, 0x6a, 0xbe,
  0xb5, 0xc2, 0xa1, 0xbe, 0x88, 0x13, 0x42, 0x3d, 0x24, 0x9f, 0x74, 0xbe,
  0x67, 0xdd, 0xfe, 0xbe, 0xa5, 0xcd, 0x7e, 0x3e, 0x51, 0xea, 0xec, 0xbe,
  0xaf, 0xc6, 0x41, 0xbe, 0x20, 0xd6, 0x8b, 0x3d, 0xb0, 0xba, 0x6b, 0xbe,
  0x92, 0x83, 0xca, 0xbd, 0x0c, 0x88, 0x1a, 0xbf, 0x3a, 0x84, 0x68, 0xbe,
  0x0e, 0x5d, 0x61, 0x3e, 0x2a, 0xd4, 0x3b, 0xbe, 0x96, 0x22, 0x3c, 0x3e,
  0xed, 0xfe, 0x7e, 0xbd, 0x94, 0x58, 0x18, 0x3e, 0x27, 0xf2, 0x2a, 0x3d,
  0x0c, 0x75, 0x33, 0x3d, 0x85, 0x9e, 0x08, 0xbc, 0x37, 0x9c, 0xc5, 0xbe,
  0x0d, 0x7b, 0x0e, 0xbf, 0x38, 0xc2, 0x5d, 0x3e, 0x8d, 0xa8, 0xe4, 0x3d,
  0xbe, 0xfe, 0x32, 0xbd, 0x95, 0x1d, 0x0c, 0xbe, 0x4e, 0xfe, 0x4c, 0xbe,
  0x2e, 0xeb, 0x7c, 0x3d, 0xd7, 0xd1, 0x92, 0x3e, 0x47, 0x09, 0xcd, 0x3d,
  0x46, 0x88, 0xb3, 0x3e, 0x20, 0xf2, 0x1f, 0xbc, 0x6b, 0x19, 0xab, 0x3e,
  0xa7, 0xfa, 0xb6, 0xbd, 0xb9, 0x58, 0x55, 0xbe, 0x41, 0xbc, 0xe2, 0x3e,
  0xf3, 0xbb, 0x26, 0x3c, 0xb5, 0xba, 0x5e, 0xbe, 0x2c, 0x15, 0x1c, 0x3e,
  0x7c, 0x90, 0x74, 0x3e, 0x95, 0x30, 0xde, 0x3e, 0xc0, 0x49, 0x44, 0x3b,
  0x3c, 0x15, 0xbd, 0xbe, 0x00, 0xc1, 0x97, 0xbe, 0x45, 0x8c, 0x33, 0x3e,
  0x06, 0x8c, 0x5e, 0xbe, 0xcc, 0x04, 0x2e, 0x3e, 0x9a, 0x1c, 0x53, 0xbc,
  0x45, 0xb1, 0x97, 0xbd, 0xae, 0xd7, 0x5e, 0x3d, 0xa0, 0x13, 0xe6, 0x3e,
  0xd5, 0x7b, 0x7d, 0x3e, 0x7e, 0xb6, 0xef, 0x3d, 0x43, 0x78, 0x15, 0x3f,
  0x07, 0x18, 0x06, 0x3e, 0x6b, 0x30, 0xe2, 0x3e, 0xb4, 0xdd, 0x37, 0xbf,
  0x9a, 0xab, 0xae, 0x3d, 0xb2, 0x9d, 0x2c, 0xbd, 0x49, 0x53, 0x25, 0xbf,
  0xff, 0xbf, 0x04, 0xbf, 0x15, 0xfb, 0x35, 0xbf, 0x10, 0xb1, 0x2b, 0x3e,
  0x56, 0x73, 0x61, 0x3e, 0xb9, 0x3b, 0xe7, 0xbd, 0xdf, 0x94, 0x27, 0x3f,
  0xfd, 0xe0, 0x68, 0xbe, 0x87, 0x6e, 0x7b, 0x3e, 0xe3, 0xcd, 0x5e, 0xbd,
  0xac, 0x7c, 0x26, 0xbf, 0x18, 0x7e, 0x94, 0x3d, 0x82, 0xf8, 0xdf, 0x3e,
  0x6c, 0x1f, 0x0b, 0xbe, 0x42, 0xcb, 0x0c, 0x39, 0xcd, 0xc1, 0xa9, 0x3d,
  0xfe, 0x40, 0x03, 0xbc, 0x1e, 0xe9, 0x31, 0xbf, 0x00, 0x75, 0xff, 0xbe,
  0xf5, 0x91, 0x05, 0x3f, 0x8e, 0xae, 0x1c, 0xbd, 0x82, 0x9a, 0x61, 0xbe,
  0x6b, 0x31, 0x05, 0x3e, 0xf9, 0xdd, 0x4a, 0xbe, 0x42, 0x52, 0x9d, 0x3e,
  0xf6, 0xca, 0x94, 0x3d, 0xcc, 0x27, 0x13, 0x3f, 0xb2, 0x4c, 0xf1, 0x3c,
  0x72, 0xc1, 0xed, 0x3e, 0xbd, 0xae, 0xa3, 0x3e, 0x7c, 0x45, 0x94, 0x3d,
  0x76, 0x3e, 0xb9, 0x3d, 0x29, 0xa4, 0xb7, 0xbe, 0x21, 0x82, 0xa4, 0xbe,
  0x8b, 0xca, 0x8f, 0x3b, 0xc2, 0x08, 0x85, 0x3e, 0x7b, 0x05, 0x39, 0xbf,
  0xbf, 0x70, 0x36, 0xbd, 0x0a, 0xbd, 0xa9, 0x3e, 0x17, 0x45, 0x96, 0xbe,
  0x37, 0xcc, 0x5a, 0x3f, 0x72, 0xd7, 0xc0, 0xbc, 0xd6, 0x67, 0xfc, 0x3e,
  0xcf, 0xfb, 0x10, 0xbf, 0xdc, 0x57, 0x2e, 0xbe, 0xc3, 0x39, 0x74, 0x3e,
  0x2f, 0xbe, 0x13, 0xbf, 0xce, 0x35, 0x2b, 0x3e, 0x45, 0x5c, 0x43, 0xbc,
  0xf9, 0x2c, 0x13, 0x3f, 0x3a, 0x39, 0x33, 0x3e, 0x1f, 0xb9, 0x11, 0xbe,
  0x25, 0x14, 0xd9, 0xbd, 0x41, 0xef, 0x99, 0x3e, 0xb5, 0x6e, 0xbf, 0xbe,
  0x78, 0xa2, 0x01, 0xbd, 0x18, 0x73, 0x86, 0xbe, 0xc7, 0xdf, 0xd4, 0xbd,
  0xa9, 0xc6, 0x86, 0x3e, 0x26, 0x23, 0x3f, 0xbf, 0x59, 0x36, 0xcb, 0x3d,
  0xb4, 0xd0, 0x28, 0xbb, 0x06, 0xad, 0xd1, 0xbe, 0x5b, 0xd0, 0x41, 0x3e,
  0xa4, 0xb6, 0xad, 0x3d, 0x0c, 0x90, 0x2d, 0x3e, 0xca, 0x2e, 0x32, 0x3d,
  0x82, 0x88, 0x14, 0x3d, 0x1c, 0x46, 0x64, 0xbd, 0x5e, 0x8e, 0xb8, 0xbc,
  0xa8, 0x64, 0x18, 0x3e, 0xf5, 0x58, 0xab, 0x3d, 0xad, 0xd4, 0x3e, 0x3e,
  0x07, 0xc6, 0xc0, 0xbe, 0xe1, 0xba, 0xff, 0xbe, 0x01, 0x6e, 0x49, 0xbe,
  0x8d, 0x27, 0x53, 0xbe, 0xa3, 0xfb, 0x55, 0xbd, 0x22, 0x4a, 0x9d, 0xbb,
  0x09, 0xf4, 0x28, 0x3e, 0x57, 0x77, 0xc7, 0x3e, 0xcd, 0xd4, 0x37, 0x3e,
  0x41, 0xc1, 0x91, 0x3d, 0xfd, 0xe8, 0x02, 0x3f, 0xf2, 0x29, 0x8f, 0x3e,
  0xe3, 0x5e, 0xda, 0x3e, 0xcd, 0x5c, 0xc1, 0xbc, 0x37, 0xb2, 0x66, 0x3e,
  0xee, 0x87, 0xc7, 0x3d, 0x59, 0xf8, 0x25, 0x3e, 0x69, 0x7f, 0xa8, 0xbe,
  0xb9, 0x68, 0x71, 0xbe, 0xbf, 0xfa, 0x10, 0x3e, 0x63, 0x6a, 0xc3, 0x3d,
  0xdd, 0x4e, 0x93, 0xbe, 0x72, 0xe6, 0xce, 0xbe, 0xf2, 0x2b, 0xcc, 0x3d,
  0xcc, 0xe0, 0xc4, 0x3e, 0x42, 0x89, 0x09, 0x3d, 0x92, 0xc2, 0x1b, 0xbe,
  0xc2, 0x25, 0x33, 0x3e, 0xf6, 0xad, 0xe5, 0x3e, 0x27, 0x67, 0xa8, 0xbe,
  0xc9, 0x8a, 0xb1, 0x3d, 0xcb, 0xf0, 0xd5, 0xbd, 0x5a, 0xde, 0xac, 0x3e,
  0x8c, 0x84, 0x51, 0x3e, 0xeb, 0xf8, 0xad, 0xbe, 0xc3, 0x12, 0xb9, 0x3e,
  0x9e, 0x24, 0xbd, 0x3d, 0xfb, 0xa4, 0x11, 0xbe, 0x5c, 0x0d, 0x6c, 0xbe,
  0x95, 0x59, 0x73, 0xbe, 0xe9, 0x75, 0x1b, 0x3f, 0x5e, 0x6f, 0xad, 0x3e,
  0x9b, 0xd3, 0x87, 0xbe, 0xdc, 0xd6, 0xa2, 0xbd, 0xec, 0x49, 0x0f, 0x3f,
  0x80, 0xe9, 0xeb, 0xbe, 0x72, 0xd3, 0xba, 0x3d, 0x1c, 0x4b, 0x8a, 0x3d,
  0xdc, 0xd3, 0xc4, 0x3e, 0xa9, 0x0c, 0xe5, 0x3d, 0x44, 0x2c, 0x64, 0x3e,
  0xdd, 0x83, 0x1c, 0x3f, 0xe5, 0xc9, 0x94, 0x3c, 0xf0, 0xd1, 0xfa, 0xbc,
  0x55, 0xb3, 0x1c, 0xbe, 0x06, 0x34, 0x7c, 0xbc, 0xba, 0x62, 0xc0, 0x3e,
  0xb1, 0x60, 0x05, 0xbe, 0x51, 0xdc, 0xc0, 0xbd, 0xfb, 0xb3, 0x84, 0x3e,
  0x5b, 0x34, 0x77, 0x3f, 0x5d, 0x29, 0x02, 0xbf, 0x90, 0x3b, 0x1c, 0x3e,
  0x0d, 0x85, 0xed, 0x3d, 0x31, 0xd7, 0x32, 0x3f, 0x6d, 0x39, 0xfb, 0x3d,
  0xe4, 0xac, 0x0a, 0xbc, 0xe3, 0x7c, 0x3c, 0xbd, 0x59, 0x2a, 0x0c, 0xbe,
  0x06, 0x7a, 0xf3, 0xbe, 0x55, 0x06, 0xec, 0x3d, 0x9f, 0x99, 0x55, 0xbe,
  0x6f, 0xa5, 0x6d, 0xbd, 0x01, 0x86, 0x7d, 0xbd, 0xef, 0x30, 0xba, 0xbd,
  0x99, 0x2f, 0xc4, 0xbe, 0x4c, 0x79, 0x6b, 0x3e, 0xb1, 0x9c, 0xcb, 0xbd,
  0x30, 0xd9, 0x6c, 0x3d, 0x20, 0x9b, 0xb9, 0x3e, 0x7f, 0x45, 0x5b, 0xbe,
  0xe7, 0x3c, 0xae, 0xbd, 0x65, 0x1b, 0xa7, 0xbe, 0xa0, 0xf9, 0x4e, 0x3b,
  0xe3, 0x81, 0x50, 0xbe, 0xfd, 0x30, 0x67, 0xbd, 0xaa, 0x4e, 0x79, 0xbe,
  0x7e, 0x54, 0x34, 0xbe, 0x54, 0x4f, 0x98, 0xbe, 0x3d, 0xe3, 0xc1, 0xbe,
  0x92, 0x9d, 0xc4, 0xbd, 0x6c, 0x93, 0x79, 0xbd, 0x55, 0x2b, 0x8f, 0xbd,
  0xb6, 0x3a, 0x0a, 0xbd, 0xd9, 0x5f, 0xaf, 0xbe, 0x2d, 0x39, 0xc1, 0x3e,
  0x7c, 0xb2, 0x6f, 0xbc, 0x28, 0x45, 0xa9, 0xbe, 0x1d, 0x34, 0x88, 0x3d,
  0xcd, 0x62, 0x64, 0xbe, 0x5b, 0x3a, 0x29, 0xbd, 0xea, 0x8b, 0xaa, 0xbe,
  0x9c, 0x4f, 0x5b, 0x3e, 0xbb, 0x16, 0xee, 0xbe, 0x9e, 0x3d, 0x2d, 0xbe,
  0x6b, 0x84, 0xc1, 0xbe, 0xd2, 0x93, 0xc8, 0xbd, 0x53, 0xa1, 0x8f, 0xbd,
  0xf9, 0xde, 0x2d, 0xbe, 0x79, 0x77, 0x46, 0xbe, 0x69, 0x50, 0x37, 0x3e,
  0x06, 0x75, 0x10, 0x3e, 0x65, 0x97, 0xd3, 0x3d, 0x24, 0x5f, 0xb0, 0xbe,
  0x66, 0xea, 0xff, 0xff, 0x10, 0x00, 0x00, 0x00, 0x0f, 0x00, 0x00, 0x00,
  0x1c, 0x00, 0x00, 0x00, 0x6c, 0x00, 0x00, 0x00, 0x04, 0x00, 0x00, 0x00,
  0x08, 0x00, 0x00, 0x00, 0x01, 0x00, 0x00, 0x00, 0x03, 0x00, 0x00, 0x00,
  0x10, 0x00, 0x00, 0x00, 0x4e, 0x00, 0x00, 0x00, 0x73, 0x65, 0x71, 0x75,
  0x65, 0x6e, 0x74, 0x69, 0x61, 0x6c, 0x2f, 0x63, 0x6f, 0x6e, 0x76, 0x31,
  0x64, 0x5f, 0x32, 0x2f, 0x63, 0x6f, 0x6e, 0x76, 0x31, 0x64, 0x3b, 0x53,
  0x74, 0x61, 0x74, 0x65, 0x66, 0x75, 0x6c, 0x50, 0x61, 0x72, 0x74, 0x69,
  0x74, 0x69, 0x6f, 0x6e, 0x65, 0x64, 0x43, 0x61, 0x6c, 0x6c, 0x2f, 0x73,
  0x65, 0x71, 0x75, 0x65, 0x6e, 0x74, 0x69, 0x61, 0x6c, 0x2f, 0x63, 0x6f,
  0x6e, 0x76, 0x31, 0x64, 0x5f, 0x32, 0x2f, 0x63, 0x6f, 0x6e, 0x76, 0x31,
  0x64, 0x31, 0x00, 0x00, 0x9c, 0xea, 0xff, 0xff, 0x8a, 0xeb, 0xff, 0xff,
  0x04, 0x00, 0x00, 0x00, 0x20, 0x00, 0x00, 0x00, 0x00, 0x00, 0x00, 0x00,
  0x00, 0x00, 0x00, 0x00, 0x00, 0x00, 0x00, 0x00, 0x00, 0x00, 0x00, 0x00,
  0x00, 0x00, 0x00, 0x00, 0x00, 0x00, 0x00, 0x00, 0x00, 0x00, 0x00, 0x00,
  0x00, 0x00, 0x00, 0x00, 0x12, 0xeb, 0xff, 0xff, 0x10, 0x00, 0x00, 0x00,
  0x0e, 0x00, 0x00, 0x00, 0x10, 0x00, 0x00, 0x00, 0x60, 0x00, 0x00, 0x00,
  0x01, 0x00, 0x00, 0x00, 0x08, 0x00, 0x00, 0x00, 0x4d, 0x00, 0x00, 0x00,
  0x73, 0x65, 0x71, 0x75, 0x65, 0x6e, 0x74, 0x69, 0x61, 0x6c, 0x2f, 0x63,
  0x6f, 0x6e, 0x76, 0x31, 0x64, 0x5f, 0x32, 0x2f, 0x63, 0x6f, 0x6e, 0x76,
  0x31, 0x64, 0x3b, 0x53, 0x74, 0x61, 0x74, 0x65, 0x66, 0x75, 0x6c, 0x50,
  0x61, 0x72, 0x74, 0x69, 0x74, 0x69, 0x6f, 0x6e, 0x65, 0x64, 0x43, 0x61,
  0x6c, 0x6c, 0x2f, 0x73, 0x65, 0x71, 0x75, 0x65, 0x6e, 0x74, 0x69, 0x61,
  0x6c, 0x2f, 0x63, 0x6f, 0x6e, 0x76, 0x31, 0x64, 0x5f, 0x32, 0x2f, 0x63,
  0x6f, 0x6e, 0x76, 0x31, 0x64, 0x00, 0x00, 0x00, 0x3c, 0xeb, 0xff, 0xff,
  0x2a, 0xec, 0xff, 0xff, 0x04, 0x00, 0x00, 0x00, 0x00, 0x06, 0x00, 0x00,
  0xdb, 0xa3, 0x81, 0xbd, 0x3e, 0x90, 0x30, 0xbe, 0xec, 0xdf, 0x7b, 0x3e,
  0xfb, 0xf3, 0xfa, 0x3e, 0xd0, 0xb8, 0x83, 0xbe, 0xf0, 0xc9, 0xa0, 0xbe,
  0xa1, 0x1a, 0xca, 0x3e, 0xf0, 0x69, 0xee, 0xbd, 0x62, 0x1c, 0x87, 0x3d,
  0xfa, 0xea, 0x09, 0xbe, 0xac, 0x44, 0xa5, 0xbd, 0x5c, 0x1d, 0xcd, 0x3d,
  0x92, 0x53, 0x1c, 0xbe, 0x38, 0x4c, 0x1e, 0xbe, 0x10, 0xbf, 0x10, 0xbe,
  0xd8, 0xf1, 0x00, 0x3e, 0xf2, 0x3e, 0x00, 0x3f, 0x45, 0x2f, 0x5f, 0x3e,
  0xbb, 0x89, 0xcf, 0x3d, 0x59, 0x4e, 0x38, 0x3e, 0x1d, 0x9e, 0xc9, 0x3d,
  0x05, 0xcd, 0x06, 0x3e, 0x9e, 0xd8, 0x4d, 0x3e, 0xf2, 0xcf, 0xf5, 0x3d,
  0x93, 0xdb, 0x03, 0xbf, 0x56, 0x7b, 0x70, 0x3e, 0xc3, 0xff, 0x96, 0xbe,
  0x68, 0x5c, 0x1d, 0xbf, 0x4e, 0x02, 0x0f, 0xbe, 0xbb, 0xb8, 0x9a, 0xbc,
  0xb7, 0x0e, 0x5a, 0x3e, 0xb6, 0xe1, 0x58, 0x3d, 0xf2, 0x49, 0x08, 0xbe,
  0x10, 0x70, 0x20, 0xbf, 0x18, 0x36, 0x00, 0xbf, 0x79, 0xc4, 0x07, 0xbf,
  0xe4, 0x7b, 0x82, 0xbe, 0xbd, 0xc5, 0x02, 0xbe, 0xc9, 0x42, 0x4e, 0xbe,
  0x34, 0x65, 0x94, 0xbd, 0xd4, 0xda, 0xc1, 0x3e, 0xa6, 0x22, 0x15, 0x3f,
  0xef, 0x90, 0x0c, 0x3e, 0xe5, 0x97, 0x41, 0xbe, 0x8d, 0x3b, 0x94, 0x3e,
  0xd0, 0x36, 0x58, 0xbe, 0x6d, 0xa5, 0xb9, 0xbe, 0x4d, 0x6c, 0x51, 0xbe,
  0xe2, 0xca, 0x45, 0x3d, 0xf9, 0xa3, 0xd6, 0x3e, 0x36, 0x61, 0xaa, 0x3d,
  0x7d, 0x18, 0x8c, 0xbe, 0x5e, 0x1a, 0xa6, 0x3e, 0x1d, 0x03, 0xaa, 0x3e,
  0xd5, 0xd9, 0xad, 0xbe, 0xba, 0xe3, 0x43, 0xbe, 0x6e, 0x67, 0x8b, 0x3e,
  0x91, 0x6e, 0x9c, 0xbd, 0x3a, 0xd6, 0x82, 0x3e, 0x62, 0x56, 0xc5, 0xbe,
  0x86, 0xe8, 0xd9, 0x3c, 0x79, 0xc2, 0x7c, 0xbd, 0xa5, 0x17, 0x98, 0xbe,
  0x42, 0xc0, 0x78, 0x3d, 0xce, 0xc3, 0xa6, 0xbe, 0x14, 0x90, 0xb2, 0x3c,
  0x87, 0x8e, 0xf3, 0xbd, 0x07, 0xa1, 0xd2, 0xbd, 0x1c, 0x72, 0x82, 0xbc,
  0xbd, 0x55, 0xfe, 0xbd, 0xf0, 0x84, 0xae, 0xbd, 0xd5, 0x77, 0x87, 0xbd,
  0x7f, 0x3c, 0xb4, 0xbd, 0x5a, 0x8d, 0xe0, 0xbd, 0x26, 0x26, 0x01, 0xbd,
  0x2c, 0x9b, 0x88, 0x3e, 0xa3, 0xcc, 0x03, 0xbd, 0x8c, 0x78, 0xc9, 0x3d,
  0xd2, 0x9b, 0x8e, 0xbd, 0xde, 0x7d, 0x09, 0x3f, 0x77, 0x85, 0xcd, 0x3d,
  0x95, 0x60, 0x6e, 0xbd, 0x2f, 0x5f, 0xf1, 0x3d, 0x79, 0x4d, 0xef, 0x3e,
  0x0f, 0x83, 0xdc, 0xbc, 0x9b, 0x7c, 0xc6, 0x3d, 0x49, 0xca, 0x6e, 0x3e,
  0x14, 0x42, 0xa1, 0x3e, 0xf0, 0x13, 0x16, 0x3e, 0xec, 0x80, 0x8c, 0x3b,
  0xa2, 0x08, 0x3e, 0x3e, 0xd7, 0xc6, 0x70, 0xbe, 0x30, 0xd7, 0xce, 0x38,
  0x2f, 0xb7, 0x29, 0xbc, 0x40, 0xa2, 0xd3, 0x3e, 0x19, 0xf6, 0x5f, 0xbe,
  0xe9, 0x4f, 0x8e, 0x3d, 0xed, 0x30, 0x43, 0xbe, 0x68, 0xa9, 0xf7, 0x3e,
  0x66, 0xa2, 0xd8, 0xbd, 0x56, 0xd8, 0x87, 0x3e, 0x31, 0x6e, 0x1d, 0x3e,
  0x4e, 0x5e, 0x41, 0xbe, 0x43, 0xda, 0x65, 0x3e, 0x5d, 0x51, 0x80, 0x3c,
  0xd1, 0x62, 0x93, 0xbe, 0xdb, 0x30, 0x8f, 0x3d, 0x1d, 0x84, 0x66, 0xbd,
  0xee, 0x9e, 0x46, 0x3e, 0x7a, 0x91, 0xbe, 0xbd, 0x89, 0x97, 0xa3, 0x3c,
  0x5d, 0x8d, 0xf6, 0x3e, 0xf9, 0xd3, 0x14, 0xbd, 0xc8, 0x5f, 0x9b, 0xbe,
  0xd8, 0xf7, 0x3f, 0x3e, 0x28, 0x1d, 0xa3, 0xbd, 0x3f, 0x3e, 0x07, 0xbe,
  0x1d, 0xb0, 0x25, 0x3f, 0x73, 0x3f, 0x22, 0x3e, 0x92, 0x4c, 0x37, 0x3f,
  0x13, 0xde, 0x15, 0xbe, 0xdf, 0x0f, 0x58, 0x3e, 0x62, 0x31, 0xe4, 0xbe,
  0x77, 0x41, 0x30, 0xbe, 0x51, 0x2a, 0x81, 0x3e, 0xa4, 0x46, 0x03, 0xbe,
  0xab, 0x03, 0x03, 0xbe, 0x21, 0xe4, 0x0a, 0x3f, 0x22, 0xb0, 0x5f, 0xbe,
  0xc5, 0x23, 0x75, 0xbe, 0xc0, 0x41, 0x46, 0xbe, 0x5a, 0x96, 0x19, 0xbd,
  0xc4, 0x95, 0x79, 0x3c, 0xa1, 0x78, 0xfb, 0x3e, 0x40, 0xec, 0xb2, 0xbb,
  0x8a, 0x09, 0x99, 0xbd, 0x2f, 0xeb, 0x26, 0xbd, 0xa8, 0x1f, 0x16, 0xbe,
  0x6e, 0x42, 0x50, 0xbe, 0x7c, 0x26, 0x14, 0x3d, 0xbb, 0xca, 0x15, 0x3d,
  0x6a, 0xb1, 0x09, 0x3f, 0xd0, 0xab, 0xfd, 0x3c, 0x8a, 0x8b, 0xe3, 0x3e,
  0x40, 0x03, 0x0e, 0x3e, 0xc3, 0xa6, 0x44, 0xbf, 0x0c, 0x9e, 0x3d, 0x3c,
  0xe5, 0x04, 0x77, 0xbf, 0x62, 0x11, 0x68, 0x3c, 0x89, 0x93, 0xc5, 0x3e,
  0x00, 0x32, 0x3d, 0xbf, 0xfb, 0xe5, 0x8b, 0xbe, 0xb3, 0x86, 0x7b, 0xbd,
  0x26, 0xe3, 0xe4, 0xbe, 0xd4, 0x7c, 0x4b, 0xbd, 0x02, 0x93, 0x84, 0xbf,
  0x09, 0xbc, 0xb3, 0xbe, 0x9b, 0xad, 0x5a, 0x3e, 0x41, 0xc0, 0x61, 0xbf,
  0x7c, 0x76, 0x01, 0xbe, 0xb9, 0x25, 0xae, 0x3c, 0xcd, 0xeb, 0x8a, 0x3e,
  0xb3, 0xfd, 0xa3, 0xbe, 0x6f, 0x34, 0x8f, 0xbe, 0xc6, 0x5f, 0xf9, 0x3e,
  0x96, 0x3d, 0x15, 0x3e, 0x86, 0xfc, 0x4e, 0xbf, 0x25, 0x2c, 0x96, 0xbd,
  0xce, 0x6b, 0x78, 0x3e, 0x4b, 0x25, 0x8e, 0xbc, 0xce, 0x0f, 0x7d, 0x3e,
  0x59, 0xaf, 0x21, 0xbe, 0x25, 0xdf, 0xcc, 0x3e, 0x19, 0x11, 0x24, 0x3f,
  0xb3, 0x77, 0x2d, 0xbe, 0xc3, 0x89, 0x00, 0x3e, 0x96, 0xb0, 0x51, 0x3d,
  0x1f, 0xb5, 0xd7, 0xbe, 0x3e, 0x29, 0xc4, 0xbc, 0x5f, 0x72, 0x1e, 0xbe,
  0xf1, 0x17, 0xa3, 0x3d, 0xa3, 0x93, 0x8a, 0x3e, 0x88, 0x17, 0x91, 0x3d,
  0x9b, 0x37, 0x12, 0xbf, 0x8b, 0xd8, 0xfd, 0x3d, 0x31, 0x12, 0x90, 0xbe,
  0x8d, 0x1f, 0x5f, 0xbe, 0x7d, 0x33, 0xd6, 0xbd, 0x12, 0xb1, 0x63, 0xbe,
  0xc3, 0xc0, 0xca, 0x3e, 0xde, 0xee, 0xee, 0x3d, 0x60, 0xa1, 0xc9, 0x3d,
  0x48, 0xb3, 0x86, 0xbf, 0xfd, 0x90, 0x7a, 0xbe, 0x1c, 0x28, 0x9a, 0xbe,
  0x50, 0xf4, 0x21, 0xbe, 0x5b, 0x99, 0xf6, 0xbe, 0x86, 0x5c, 0x14, 0xbf,
  0x9f, 0x91, 0x2f, 0xbc, 0x92, 0xb9, 0x98, 0xbd, 0x37, 0x89, 0x13, 0xbf,
  0x12, 0xf8, 0xf5, 0xbe, 0xd3, 0x45, 0x22, 0xbe, 0x5c, 0x7b, 0xef, 0x3e,
  0xde, 0xac, 0xb7, 0xbe, 0xb0, 0x8e, 0xd0, 0xbe, 0x83, 0x2f, 0x8c, 0x3e,
  0x2e, 0xda, 0x43, 0xbe, 0x76, 0xe5, 0x37, 0xbe, 0x81, 0x0f, 0x2b, 0x3e,
  0x63, 0x96, 0x28, 0xbe, 0x5f, 0x6c, 0x54, 0xbe, 0xd2, 0xf5, 0x01, 0xbf,
  0x5c, 0x9c, 0xf4, 0xbe, 0xad, 0xc4, 0xb5, 0x3e, 0x06, 0x7e, 0xbd, 0xbb,
  0xa6, 0xfc, 0xc5, 0xbd, 0x9d, 0xe4, 0x5e, 0x3e, 0x3d, 0xa8, 0x77, 0xbe,
  0xdd, 0xb8, 0x16, 0xbd, 0x52, 0x85, 0x49, 0x3f, 0xcf, 0xb9, 0x06, 0x3e,
  0xc1, 0x10, 0xa0, 0xbc, 0x52, 0x65, 0xf0, 0xbe, 0x22, 0x73, 0x83, 0xbc,
  0x9d, 0x7d, 0x82, 0x3e, 0x1c, 0xb9, 0xef, 0x3d, 0xaa, 0xdd, 0x4f, 0x3a,
  0xa7, 0xe8, 0x81, 0xbe, 0x20, 0x0f, 0x70, 0xbc, 0x8d, 0x11, 0x94, 0x3e,
  0x8e, 0x98, 0x6d, 0xbe, 0x1e, 0x6d, 0xf4, 0xbb, 0x7f, 0x05, 0x39, 0x3e,
  0xbc, 0x21, 0xec, 0x3b, 0xca, 0xe7, 0xf4, 0x3d, 0xe9, 0x53, 0xe9, 0x3e,
  0xcb, 0xbc, 0x94, 0x3e, 0xad, 0x21, 0xb4, 0x3e, 0x23, 0x99, 0xd2, 0xbd,
  0xe3, 0xe4, 0x2a, 0xbd, 0x7c, 0x8c, 0x0c, 0xbf, 0x4a, 0xa3, 0x16, 0xbe,
  0x37, 0xee, 0x62, 0xbf, 0x92, 0x66, 0xf3, 0xbd, 0x38, 0xc9, 0xb2, 0x3b,
  0xa1, 0xab, 0xf5, 0xbe, 0xc1, 0x48, 0x1d, 0xbf, 0xd2, 0xeb, 0x43, 0xbd,
  0xfd, 0xa1, 0x08, 0xbe, 0x45, 0xc1, 0x9c, 0xbe, 0x97, 0x00, 0xd0, 0xbe,
  0x3a, 0xe0, 0x3e, 0x3f, 0xe2, 0x96, 0xe9, 0xbc, 0xe5, 0xb7, 0xab, 0xbe,
  0xdf, 0xe7, 0x30, 0xbf, 0xac, 0x59, 0x1a, 0x3e, 0x9d, 0xcf, 0xbf, 0x3d,
  0xe3, 0xf4, 0xfd, 0xbe, 0xcf, 0xaa, 0xea, 0xbd, 0x0f, 0x2b, 0xc4, 0x3d,
  0x9f, 0x28, 0xb4, 0xbd, 0x12, 0xb5, 0xe4, 0xbe, 0x50, 0xb9, 0x2b, 0xbf,
  0x2f, 0x68, 0x2a, 0xbf, 0xd1, 0x10, 0x2c, 0xbd, 0xce, 0x30, 0xae, 0xbd,
  0xc0, 0x74, 0x94, 0x3e, 0x5e, 0x30, 0xab, 0xbe, 0x2d, 0x1e, 0x1b, 0xbf,
  0x05, 0xfe, 0xa5, 0x3e, 0x6b, 0x76, 0xf2, 0x3b, 0x0a, 0x9c, 0x3b, 0xbf,
  0x26, 0x95, 0x0e, 0x3e, 0x41, 0xda, 0x9b, 0xbe, 0xf6, 0x3a, 0x49, 0xbd,
  0x4c, 0xbf, 0xd6, 0xbe, 0x1f, 0xb3, 0x61, 0xbf, 0xda, 0x6d, 0x7f, 0xbd,
  0x3a, 0x9b, 0xda, 0x3c, 0x74, 0x2d, 0x09, 0x3f, 0x49, 0xcd, 0x9f, 0x3e,
  0xc0, 0x85, 0xef, 0xbe, 0x05, 0x80, 0x91, 0x3d, 0x6c, 0x4f, 0xba, 0xbd,
  0x86, 0x27, 0x97, 0xbe, 0xd8, 0x81, 0x09, 0x3e, 0xe1, 0x8b, 0xd5, 0xbd,
  0xc3, 0xc0, 0xa8, 0xbd, 0x6c, 0xd3, 0x98, 0xbe, 0xbe, 0x7f, 0x4c, 0xbe,
  0x21, 0x4f, 0xbd, 0x3d, 0x07, 0x46, 0xb8, 0x3e, 0xa1, 0xce, 0x0f, 0x3e,
  0xf9, 0x6c, 0x0c, 0xbd, 0x50, 0xe1, 0x4a, 0xbf, 0xaa, 0xb8, 0xdf, 0x3d,
  0xbd, 0x5e, 0x1b, 0xbe, 0x92, 0x5d, 0x43, 0x3e, 0x39, 0xc2, 0x0a, 0xbe,
  0x84, 0xc6, 0x11, 0x3f, 0xe0, 0xc6, 0x47, 0xbe, 0xd2, 0x9d, 0x38, 0xbd,
  0x63, 0xed, 0xe1, 0x3c, 0xe7, 0x3d, 0x03, 0x3e, 0x02, 0xcf, 0xe9, 0x3d,
  0x5b, 0xbc, 0x6b, 0xbe, 0x36, 0x0f, 0x7f, 0x3c, 0x8b, 0x53, 0x50, 0xbe,
  0x5a, 0xe4, 0xe1, 0xbd, 0x75, 0x13, 0x09, 0x3e, 0xed, 0x90, 0xce, 0x3e,
  0x0f, 0x33, 0x25, 0xbf, 0x8e, 0xf3, 0xea, 0xbd, 0x02, 0x8c, 0xf3, 0xbe,
  0x53, 0x2b, 0xe2, 0x3d, 0x16, 0x36, 0x4b, 0xbf, 0x74, 0xc2, 0x01, 0xbf,
  0xd9, 0x24, 0xa7, 0xbe, 0x6a, 0xf9, 0x97, 0xbe, 0x17, 0x43, 0x69, 0xbf,
  0xe3, 0xf2, 0x35, 0xbe, 0x93, 0x13, 0x4c, 0xbf, 0x1d, 0x1d, 0x2b, 0x3d,
  0xf1, 0x97, 0x9e, 0xbe, 0x02, 0xdc, 0x0e, 0xbf, 0x2f, 0xe2, 0xf0, 0xbe,
  0xe6, 0xfe, 0x78, 0xbe, 0xf2, 0x79, 0x98, 0xbc, 0x26, 0x11, 0x14, 0x3d,
  0x73, 0x65, 0x7c, 0x3b, 0xbe, 0xe9, 0xe9, 0xbc, 0x2d, 0x78, 0xd7, 0xbe,
  0xf1, 0x5c, 0x01, 0xbf, 0xd8, 0xf1, 0x1b, 0x3f, 0xc9, 0xd2, 0xc5, 0xbd,
  0x5d, 0x64, 0x1b, 0x3d, 0x0b, 0xa2, 0xc7, 0x3e, 0x16, 0xcf, 0xd9, 0xbe,
  0x2e, 0x75, 0x0f, 0xbf, 0xb9, 0x0c, 0x2c, 0x3d, 0x60, 0x89, 0x23, 0x3e,
  0x2a, 0x06, 0xd2, 0xbe, 0x1a, 0x8e, 0x38, 0xbf, 0x74, 0x7c, 0xfa, 0x3d,
  0x0f, 0x4b, 0xbe, 0x3c, 0x52, 0xe3, 0x0f, 0xbf, 0x1c, 0x5b, 0x90, 0xbe,
  0xc4, 0x27, 0xbc, 0x3e, 0x06, 0xa6, 0x60, 0xbd, 0xb5, 0x3d, 0x9c, 0xbd,
  0x30, 0x64, 0x1e, 0xbf, 0xa4, 0x22, 0xc6, 0x3d, 0xca, 0x68, 0x40, 0x3f,
  0x36, 0x69, 0xce, 0xbe, 0x97, 0x20, 0x20, 0xbe, 0x6a, 0x18, 0xf0, 0xbd,
  0xda, 0xdb, 0x49, 0xbe, 0xf9, 0x7a, 0xac, 0xbe, 0x46, 0xf3, 0x14, 0xbf,
  0xf2, 0xa4, 0x2c, 0x3f, 0x95, 0x5e, 0x07, 0x3f, 0x45, 0x6a, 0x5a, 0xbe,
  0x91, 0xfb, 0x1d, 0xbe, 0x33, 0xec, 0x34, 0xbd, 0x62, 0x18, 0xda, 0xbe,
  0x3e, 0xee, 0x8f, 0xbe, 0x57, 0x98, 0x4b, 0x3d, 0x1e, 0x18, 0xa1, 0x3d,
  0x3c, 0x30, 0xbe, 0x3e, 0x44, 0xc0, 0x95, 0x3e, 0x34, 0x8b, 0x19, 0xbf,
  0x47, 0x01, 0xa6, 0xbc, 0x67, 0x57, 0x3f, 0xbe, 0xfc, 0x15, 0x9d, 0xbe,
  0x85, 0xe7, 0x07, 0xbe, 0x85, 0x09, 0x6b, 0x3f, 0x4e, 0xb5, 0xec, 0xbd,
  0x46, 0x26, 0x1e, 0x3e, 0x49, 0x06, 0x5e, 0xbf, 0xe8, 0x80, 0xb4, 0x3c,
  0x50, 0x34, 0x8c, 0xbe, 0xfa, 0x50, 0xbc, 0xbe, 0xc8, 0x19, 0x9b, 0xbe,
  0x92, 0xf1, 0xff, 0xff, 0x10, 0x00, 0x00, 0x00, 0x0d, 0x00, 0x00, 0x00,
  0x1c, 0x00, 0x00, 0x00, 0x6c, 0x00, 0x00, 0x00, 0x04, 0x00, 0x00, 0x00,
  0x10, 0x00, 0x00, 0x00, 0x01, 0x00, 0x00, 0x00, 0x03, 0x00, 0x00, 0x00,
  0x08, 0x00, 0x00, 0x00, 0x4e, 0x00, 0x00, 0x00, 0x73, 0x65, 0x71, 0x75,
  0x65, 0x6e, 0x74, 0x69, 0x61, 0x6c, 0x2f, 0x63, 0x6f, 0x6e, 0x76, 0x31,
  0x64, 0x5f, 0x31, 0x2f, 0x63, 0x6f, 0x6e, 0x76, 0x31, 0x64, 0x3b, 0x53,
  0x74, 0x61, 0x74, 0x65, 0x66, 0x75, 0x6c, 0x50, 0x61, 0x72, 0x74, 0x69,
  0x74, 0x69, 0x6f, 0x6e, 0x65, 0x64, 0x43, 0x61, 0x6c, 0x6c, 0x2f, 0x73,
  0x65, 0x71, 0x75, 0x65, 0x6e, 0x74, 0x69, 0x61, 0x6c, 0x2f, 0x63, 0x6f,
  0x6e, 0x76, 0x31, 0x64, 0x5f, 0x31, 0x2f, 0x63, 0x6f, 0x6e, 0x76, 0x31,
  0x64, 0x31, 0x00, 0x00, 0xc8, 0xf1, 0xff, 0xff, 0xb6, 0xf2, 0xff, 0xff,
  0x04, 0x00, 0x00, 0x00, 0x40, 0x00, 0x00, 0x00, 0x00, 0x00, 0x00, 0x00,
  0x00, 0x00, 0x00, 0x00, 0x00, 0x00, 0x00, 0x00, 0x00, 0x00, 0x00, 0x00,
  0x00, 0x00, 0x00, 0x00, 0x00, 0x00, 0x00, 0x00, 0x00, 0x00, 0x00, 0x00,
  0x00, 0x00, 0x00, 0x00, 0x00, 0x00, 0x00, 0x00, 0x00, 0x00, 0x00, 0x00,
  0x00, 0x00, 0x00, 0x00, 0x00, 0x00, 0x00, 0x00, 0x00, 0x00, 0x00, 0x00,
  0x00, 0x00, 0x00, 0x00, 0x00, 0x00, 0x00, 0x00, 0x00, 0x00, 0x00, 0x00,
  0x5e, 0xf2, 0xff, 0xff, 0x10, 0x00, 0x00, 0x00, 0x0c, 0x00, 0x00, 0x00,
  0x10, 0x00, 0x00, 0x00, 0x60, 0x00, 0x00, 0x00, 0x01, 0x00, 0x00, 0x00,
  0x10, 0x00, 0x00, 0x00, 0x4d, 0x00, 0x00, 0x00, 0x73, 0x65, 0x71, 0x75,
  0x65, 0x6e, 0x74, 0x69, 0x61, 0x6c, 0x2f, 0x63, 0x6f, 0x6e, 0x76, 0x31,
  0x64, 0x5f, 0x31, 0x2f, 0x63, 0x6f, 0x6e, 0x76, 0x31, 0x64, 0x3b, 0x53,
  0x74, 0x61, 0x74, 0x65, 0x66, 0x75, 0x6c, 0x50, 0x61, 0x72, 0x74, 0x69,
  0x74, 0x69, 0x6f, 0x6e, 0x65, 0x64, 0x43, 0x61, 0x6c, 0x6c, 0x2f, 0x73,
  0x65, 0x71, 0x75, 0x65, 0x6e, 0x74, 0x69, 0x61, 0x6c, 0x2f, 0x63, 0x6f,
  0x6e, 0x76, 0x31, 0x64, 0x5f, 0x31, 0x2f, 0x63, 0x6f, 0x6e, 0x76, 0x31,
  0x64, 0x00, 0x00, 0x00, 0x88, 0xf2, 0xff, 0xff, 0x76, 0xf3, 0xff, 0xff,
  0x04, 0x00, 0x00, 0x00, 0xe0, 0x04, 0x00, 0x00, 0x3d, 0xab, 0x06, 0x3c,
  0x00, 0x3e, 0xa6, 0xbd, 0x9c, 0x7b, 0xed, 0x3e, 0xc2, 0x0b, 0xff, 0xbe,
  0x8e, 0xb1, 0x0c, 0xbe, 0x19, 0xdb, 0x82, 0xbe, 0xe6, 0x45, 0xde, 0xbe,
  0x6e, 0x71, 0xb8, 0xbd, 0xf7, 0x3f, 0x32, 0x3e, 0x89, 0xd0, 0xb1, 0x3b,
  0x1d, 0x4f, 0x96, 0x3d, 0x01, 0x03, 0x2f, 0x3e, 0x5c, 0xaa, 0x66, 0xbe,
  0xc5, 0x0b, 0xb3, 0x3e, 0xcf, 0x34, 0x00, 0xbd, 0xe1, 0x8a, 0x3f, 0x3e,
  0xac, 0xe3, 0x12, 0xbe, 0x96, 0x7c, 0xc2, 0xbe, 0x29, 0x87, 0x6f, 0xbe,
  0x77, 0x5c, 0xbe, 0xbe, 0x7c, 0xe9, 0x98, 0xbd, 0xe7, 0x90, 0x28, 0xbe,
  0xa8, 0x88, 0x47, 0xbc, 0x94, 0x44, 0x86, 0x3c, 0x48, 0xf5, 0x06, 0x3d,
  0xc0, 0xbe, 0xe2, 0xbd, 0x17, 0x6b, 0x8f, 0x3d, 0x4c, 0x66, 0xdd, 0x3e,
  0xf3, 0x7f, 0x5a, 0xbe, 0x0b, 0x64, 0x99, 0xbe, 0xfb, 0xec, 0x2c, 0xbf,
  0x86, 0xa1, 0x85, 0x3b, 0xa5, 0xf8, 0x26, 0xbe, 0x6a, 0x3d, 0xb5, 0x3e,
  0xd4, 0xb5, 0x97, 0x3e, 0xf7, 0x20, 0x21, 0x3e, 0xcf, 0x2a, 0x17, 0xbe,
  0x78, 0x00, 0xdd, 0x3d, 0x87, 0x0a, 0x6f, 0xbe, 0x11, 0x05, 0x9a, 0xbd,
  0x71, 0x4e, 0xc6, 0x3e, 0x0f, 0x8a, 0x1c, 0xbd, 0x15, 0xf5, 0xde, 0xbe,
  0x01, 0x98, 0x1f, 0x3f, 0xac, 0x37, 0xa9, 0xbd, 0x8f, 0xc0, 0x8d, 0xbd,
  0x1a, 0xab, 0x02, 0xbd, 0xd7, 0x29, 0x8f, 0xbe, 0x7b, 0x04, 0x84, 0x3e,
  0x63, 0x8b, 0xc5, 0xbe, 0xb7, 0x97, 0x49, 0x3e, 0x86, 0x3f, 0xb9, 0xbd,
  0x61, 0xc2, 0x9b, 0x3d, 0x17, 0x63, 0x9b, 0x3e, 0xba, 0x42, 0xba, 0x3d,
  0x66, 0xfe, 0x14, 0xbf, 0x03, 0x5f, 0x3b, 0x3e, 0x10, 0x4a, 0x67, 0x3e,
  0xdb, 0xd4, 0x99, 0xbe, 0xd9, 0xb4, 0xb3, 0x3d, 0x7e, 0x49, 0x63, 0x3e,
  0x25, 0xc4, 0x41, 0x3e, 0xda, 0x48, 0x80, 0xbe, 0xab, 0xd0, 0x80, 0x3e,
  0xef, 0x83, 0x1e, 0xbe, 0x1b, 0x15, 0x11, 0x3e, 0xf7, 0x9f, 0xb8, 0x3e,
  0xc3, 0x6e, 0x87, 0x3d, 0xe7, 0xbd, 0x12, 0xbf, 0xd3, 0xe0, 0x90, 0x3e,
  0x3c, 0x31, 0x9b, 0x3e, 0x23, 0x2a, 0x8d, 0xbd, 0x82, 0xef, 0x7e, 0x3d,
  0x27, 0xae, 0x87, 0xbd, 0x7a, 0x65, 0x27, 0x3c, 0x42, 0x69, 0x72, 0xbe,
  0xb1, 0x6f, 0x9f, 0x3d, 0x8a, 0x58, 0xcc, 0x3d, 0x4c, 0x86, 0x9f, 0xbe,
  0x77, 0x69, 0x00, 0xbf, 0x0a, 0x09, 0x49, 0x3e, 0x0d, 0xb1, 0x94, 0x3d,
  0x3b, 0xf2, 0x09, 0xbf, 0x30, 0x21, 0x0d, 0xbf, 0x36, 0x04, 0x31, 0xbe,
  0x6e, 0xde, 0xa2, 0xbd, 0x47, 0x48, 0xd2, 0xbd, 0xea, 0x3c, 0x30, 0x3d,
  0xb4, 0x0c, 0x9d, 0xbe, 0xbd, 0x9a, 0x9c, 0x3d, 0x64, 0x9c, 0x51, 0x3e,
  0xe1, 0x02, 0x24, 0x3d, 0x2f, 0x23, 0x9a, 0x3e, 0x51, 0x71, 0xd9, 0x3e,
  0x29, 0x05, 0x1a, 0x3e, 0x35, 0x92, 0x4a, 0x3e, 0xd6, 0x47, 0x98, 0x3e,
  0xcf, 0x97, 0x41, 0x3e, 0x0d, 0xf8, 0x78, 0xbd, 0x85, 0x63, 0x3a, 0xbe,
  0xa1, 0xe2, 0x68, 0x3e, 0xf0, 0x64, 0x25, 0x3e, 0x6f, 0xb8, 0x2a, 0x3e,
  0x7a, 0x98, 0xd3, 0xbd, 0x09, 0xfb, 0x6b, 0x3d, 0x68, 0x8f, 0xbb, 0xbe,
  0x5e, 0x7b, 0x57, 0xbe, 0xad, 0x14, 0x35, 0xbe, 0xca, 0x4b, 0x40, 0xbf,
  0x16, 0x1c, 0x35, 0xbb, 0xf2, 0xaf, 0xa0, 0x3b, 0x47, 0x66, 0xe4, 0xbd,
  0x4c, 0xf6, 0xf0, 0xbc, 0x95, 0xa6, 0x60, 0x3d, 0xc9, 0x79, 0x86, 0xbe,
  0x07, 0xff, 0x27, 0xbe, 0xb4, 0x92, 0x37, 0x3d, 0xae, 0x0b, 0x9e, 0xbf,
  0x33, 0xb5, 0x43, 0x3e, 0xeb, 0x6f, 0x88, 0xbe, 0x35, 0x36, 0x98, 0x3e,
  0xf1, 0x6d, 0x91, 0x3e, 0x25, 0xb8, 0xfc, 0xbd, 0x8f, 0x84, 0x1e, 0xbd,
  0xb9, 0x64, 0x5b, 0xbe, 0xe5, 0x69, 0x50, 0x3d, 0xcc, 0xcc, 0x49, 0xbe,
  0x57, 0x6a, 0x87, 0xbe, 0xf3, 0x37, 0x81, 0xbe, 0x75, 0xe4, 0x1a, 0xbe,
  0x5e, 0xad, 0x8a, 0xbe, 0x0b, 0xde, 0x6d, 0xbd, 0xd2, 0xa3, 0xf9, 0xbe,
  0xe2, 0xef, 0x56, 0xbe, 0x12, 0x6c, 0xa6, 0x3d, 0x46, 0xf4, 0x22, 0xbd,
  0x86, 0xae, 0x61, 0xbe, 0x53, 0x9b, 0xa7, 0xbb, 0xe3, 0x26, 0x0c, 0xbe,
  0x66, 0x80, 0x92, 0x3e, 0xb3, 0x3e, 0x75, 0x3e, 0xff, 0x23, 0x87, 0x3e,
  0xb7, 0x63, 0xfc, 0x3d, 0x2d, 0x6d, 0x39, 0xbd, 0x21, 0x8c, 0xb9, 0xbe,
  0x00, 0x27, 0x4f, 0xbe, 0x5c, 0x84, 0x89, 0x3e, 0x0d, 0x40, 0x88, 0x3e,
  0x32, 0x95, 0x88, 0x3c, 0x64, 0x0c, 0x80, 0xbd, 0xa9, 0x52, 0xe0, 0x3c,
  0x8b, 0xd9, 0x01, 0x3d, 0x52, 0xfc, 0xb9, 0xbd, 0x66, 0x9f, 0x16, 0x3e,
  0xe0, 0xcd, 0xe6, 0xbd, 0x66, 0x07, 0x28, 0xbe, 0xea, 0x76, 0x27, 0x3f,
  0x4a, 0xd8, 0x14, 0xbe, 0x92, 0x93, 0xc5, 0xbe, 0x80, 0x22, 0x5b, 0x3d,
  0xcc, 0x90, 0x34, 0xbe, 0xca, 0x6f, 0xf5, 0xbe, 0x68, 0x81, 0x6c, 0x3d,
  0x2e, 0x87, 0x8e, 0x3e, 0x9f, 0xa6, 0x4b, 0xbe, 0x0d, 0x6c, 0xec, 0x3a,
  0xfb, 0xe8, 0xf7, 0xbc, 0x13, 0x44, 0x6f, 0xbd, 0xda, 0xc7, 0xb6, 0x3c,
  0x06, 0x12, 0xe8, 0x3e, 0x8c, 0x0c, 0x1e, 0x3e, 0xfa, 0x38, 0x46, 0xbf,
  0xa7, 0x48, 0x15, 0xbe, 0x65, 0x2e, 0x1c, 0xbe, 0xc8, 0x71, 0x7f, 0xbc,
  0xe4, 0x2e, 0xda, 0xbe, 0xfe, 0x69, 0xf4, 0x3c, 0xf4, 0x52, 0x98, 0xbc,
  0x6e, 0x72, 0xfb, 0x3c, 0x6a, 0xd4, 0x28, 0x3b, 0xd0, 0x83, 0xa4, 0xbd,
  0x29, 0x6e, 0x51, 0xbe, 0xab, 0x5e, 0xcd, 0x3e, 0x41, 0xfb, 0x4f, 0x3e,
  0xdb, 0xc7, 0x72, 0x3e, 0xb0, 0x46, 0x06, 0xbe, 0x67, 0x84, 0x08, 0x3f,
  0xe9, 0xa1, 0xa3, 0x3d, 0xa8, 0x67, 0x9e, 0xbe, 0xe3, 0xb9, 0x58, 0x3d,
  0x1e, 0xfb, 0x78, 0x3e, 0x84, 0x12, 0x03, 0x3d, 0xcb, 0xc5, 0x78, 0xbe,
  0x0a, 0x28, 0x4a, 0x3e, 0x8c, 0x61, 0xef, 0x3d, 0x9b, 0x5a, 0x21, 0x3f,
  0xec, 0x2f, 0xe8, 0xbd, 0xc6, 0xdd, 0x10, 0x3e, 0x8a, 0x3f, 0x0b, 0x3e,
  0xf3, 0xac, 0x24, 0xbe, 0x6d, 0x17, 0x11, 0x3e, 0x0a, 0xd7, 0xa7, 0x3e,
  0x5e, 0x9a, 0x03, 0xbc, 0x02, 0x14, 0x10, 0x3c, 0xf5, 0x94, 0x7e, 0x3d,
  0xbd, 0x7a, 0x39, 0xbd, 0x42, 0x61, 0x6c, 0xbe, 0x73, 0xa1, 0xf4, 0xbc,
  0x39, 0x37, 0x15, 0xbe, 0x28, 0xe5, 0x95, 0xbe, 0x74, 0x33, 0xe3, 0x3e,
  0xac, 0x5f, 0x6d, 0x3e, 0xb2, 0x5e, 0x57, 0x3e, 0x6b, 0x24, 0xdd, 0x3c,
  0xe1, 0x33, 0xac, 0xbd, 0xcb, 0xa7, 0xdd, 0xbc, 0x99, 0xd8, 0x42, 0xbc,
  0xf5, 0xd8, 0xdd, 0xbd, 0x8f, 0x27, 0x24, 0x3d, 0x2c, 0x8b, 0x74, 0xbd,
  0xbb, 0x1b, 0x00, 0xbe, 0x69, 0xa5, 0x65, 0x3f, 0x15, 0x7d, 0x00, 0xbf,
  0x62, 0x28, 0x17, 0xbf, 0xae, 0xf1, 0x5a, 0xbe, 0x57, 0xdf, 0x1a, 0x3f,
  0x93, 0x44, 0xf9, 0x3d, 0x02, 0x9c, 0xb6, 0x3d, 0x1f, 0xbf, 0xb5, 0x3d,
  0x2e, 0x4f, 0x7b, 0xbd, 0xa9, 0xf0, 0x2b, 0xbe, 0x39, 0x6d, 0x97, 0xbc,
  0x57, 0x4d, 0x0d, 0xbe, 0x0c, 0x20, 0x0a, 0x3c, 0xa6, 0x7e, 0xd6, 0xbe,
  0x31, 0xa0, 0xb3, 0xbe, 0x2b, 0x4d, 0x4a, 0xbe, 0x44, 0x60, 0x2b, 0xbf,
  0xba, 0x6d, 0x6c, 0xbe, 0x87, 0x3d, 0xdb, 0x3d, 0x84, 0xa4, 0x09, 0xbe,
  0xed, 0x08, 0x5b, 0xbe, 0x2d, 0x81, 0x0a, 0xbe, 0x3c, 0x39, 0xfa, 0x3d,
  0x42, 0x28, 0x96, 0xbc, 0x00, 0x5b, 0x0f, 0x3e, 0x57, 0x70, 0x03, 0x3e,
  0x3e, 0xc6, 0x02, 0xbf, 0xd6, 0x6e, 0xe7, 0x3e, 0xee, 0xa2, 0xf6, 0xbc,
  0xa0, 0xde, 0x30, 0x3f, 0x6e, 0x83, 0x9a, 0xbd, 0x01, 0xfe, 0x30, 0xbd,
  0xcc, 0x5e, 0xf9, 0xbe, 0xc6, 0x0a, 0x96, 0xbd, 0x81, 0x5f, 0x25, 0x3d,
  0x33, 0x9b, 0xba, 0x3c, 0x59, 0xed, 0xbe, 0x3d, 0x7b, 0xda, 0x42, 0x3d,
  0xa3, 0x6f, 0x1c, 0xbd, 0x31, 0x26, 0xe5, 0xbe, 0xac, 0xed, 0xc4, 0xbd,
  0x64, 0x37, 0x7d, 0x3e, 0x5a, 0x51, 0xf4, 0xbe, 0x76, 0x16, 0x9b, 0x3d,
  0xf1, 0xed, 0x91, 0xbd, 0xf4, 0x0e, 0x88, 0xbe, 0x3c, 0x48, 0xe5, 0x3e,
  0x2a, 0xe6, 0x92, 0xbe, 0xd8, 0xe4, 0x14, 0xbe, 0x47, 0xc8, 0x82, 0xbc,
  0xa0, 0x94, 0x5f, 0xbd, 0x26, 0x4b, 0x23, 0xbe, 0x8a, 0x15, 0xae, 0xbe,
  0xed, 0xc5, 0x0c, 0xbf, 0x9b, 0x78, 0x22, 0x3e, 0x7c, 0x2f, 0x06, 0x3e,
  0xb2, 0xa4, 0x9f, 0x3e, 0x3b, 0x36, 0xb3, 0xbd, 0x84, 0x35, 0x8b, 0x3b,
  0x31, 0xf8, 0x2f, 0xbe, 0xdc, 0x5f, 0xa0, 0x3d, 0x7e, 0x78, 0x7c, 0xbd,
  0x93, 0xbf, 0x28, 0xbe, 0x43, 0x0c, 0xeb, 0x3d, 0x18, 0x92, 0x91, 0x3d,
  0x16, 0xf7, 0x8d, 0x3f, 0xd2, 0xd1, 0x12, 0xbd, 0x71, 0x5d, 0x95, 0xbe,
  0x1b, 0x51, 0xf0, 0xbe, 0x37, 0xd8, 0x95, 0xbe, 0xaa, 0x35, 0xe6, 0x3d,
  0x60, 0x6e, 0x93, 0x38, 0xec, 0xbc, 0xcb, 0xbd, 0x6a, 0xb4, 0x33, 0xbd,
  0x4c, 0x56, 0xa3, 0xbc, 0xa8, 0x3e, 0x80, 0x3e, 0x04, 0xe6, 0x54, 0x3c,
  0x93, 0x5d, 0x82, 0xbd, 0xa6, 0x4b, 0x7b, 0xbf, 0x6b, 0xf9, 0x85, 0xbe,
  0xa7, 0xd7, 0x25, 0x3f, 0x06, 0x1a, 0x37, 0x3e, 0xee, 0x13, 0xe3, 0xbc,
  0x2f, 0x66, 0xa2, 0xbe, 0x77, 0x1c, 0xe4, 0x3d, 0xfd, 0x10, 0x0a, 0x3e,
  0x89, 0x50, 0x9e, 0x3d, 0x86, 0x5f, 0x9b, 0xbd, 0xa5, 0x1c, 0x06, 0xbe,
  0xf3, 0x87, 0x8f, 0xbd, 0x0f, 0xb8, 0xe3, 0x3d, 0xbe, 0xf7, 0xff, 0xff,
  0x10, 0x00, 0x00, 0x00, 0x0b, 0x00, 0x00, 0x00, 0x1c, 0x00, 0x00, 0x00,
  0x68, 0x00, 0x00, 0x00, 0x04, 0x00, 0x00, 0x00, 0x08, 0x00, 0x00, 0x00,
  0x01, 0x00, 0x00, 0x00, 0x03, 0x00, 0x00, 0x00, 0x0d, 0x00, 0x00, 0x00,
  0x49, 0x00, 0x00, 0x00, 0x73, 0x65, 0x71, 0x75, 0x65, 0x6e, 0x74, 0x69,
  0x61, 0x6c, 0x2f, 0x63, 0x6f, 0x6e, 0x76, 0x31, 0x64, 0x2f, 0x63, 0x6f,
  0x6e, 0x76, 0x31, 0x64, 0x3b, 0x53, 0x74, 0x61, 0x74, 0x65, 0x66, 0x75,
  0x6c, 0x50, 0x61, 0x72, 0x74, 0x69, 0x74, 0x69, 0x6f, 0x6e, 0x65, 0x64,
  0x43, 0x61, 0x6c, 0x6c, 0x2f, 0x73, 0x65, 0x71, 0x75, 0x65, 0x6e, 0x74,
  0x69, 0x61, 0x6c, 0x2f, 0x63, 0x6f, 0x6e, 0x76, 0x31, 0x64, 0x2f, 0x63,
  0x6f, 0x6e, 0x76, 0x31, 0x64, 0x00, 0x00, 0x00, 0xf0, 0xf7, 0xff, 0xff,
  0xde, 0xf8, 0xff, 0xff, 0x04, 0x00, 0x00, 0x00, 0xa0, 0x02, 0x00, 0x00,
  0x6a, 0x38, 0x40, 0xbd, 0x03, 0x72, 0x58, 0x3e, 0xb8, 0x5c, 0x7b, 0xbe,
  0x3e, 0x0f, 0x91, 0x3e, 0xc9, 0x16, 0xc7, 0x3d, 0xdd, 0xc7, 0x0a, 0x3e,
  0x9c, 0xc7, 0x20, 0xbe, 0x70, 0xc8, 0xc7, 0xbd, 0x12, 0x74, 0x47, 0x3e,
  0xe4, 0xd2, 0x7c, 0xbe, 0xdf, 0xc3, 0xf6, 0x3d, 0xc3, 0xef, 0x59, 0xbe,
  0x77, 0xf9, 0x2a, 0x3e, 0x80, 0x9c, 0xe5, 0xbd, 0x01, 0x17, 0x37, 0xbe,
  0xe0, 0x9e, 0x01, 0xbf, 0x22, 0x13, 0xce, 0xbd, 0x30, 0x98, 0x2e, 0xbd,
  0x66, 0xfe, 0xba, 0xbe, 0x86, 0x76, 0xd0, 0xbe, 0xf7, 0xb8, 0x23, 0x3f,
  0x26, 0x29, 0x91, 0xbc, 0x5d, 0x91, 0xf9, 0x3d, 0x61, 0xac, 0x2d, 0xbf,
  0x0f, 0xf6, 0x35, 0xbe, 0x3a, 0xa3, 0x0e, 0xbe, 0xff, 0xa2, 0x97, 0x3d,
  0x78, 0xe7, 0x02, 0xbf, 0xb6, 0xc8, 0xd1, 0x3e, 0x32, 0x58, 0x80, 0xbe,
  0x2b, 0x83, 0xbb, 0x3e, 0x7f, 0x0b, 0x1e, 0xbf, 0xe1, 0x84, 0x5d, 0xbe,
  0x8b, 0x4a, 0xa3, 0xbd, 0xdd, 0x27, 0x5f, 0xbe, 0x87, 0x76, 0x90, 0xbe,
  0x8f, 0x40, 0xc8, 0x3d, 0x9c, 0x95, 0x62, 0xbe, 0xaa, 0x0f, 0xbd, 0x3c,
  0x5b, 0x5b, 0x5f, 0xbf, 0x60, 0x08, 0x4d, 0xbe, 0xd1, 0x27, 0x2c, 0x3c,
  0x73, 0x19, 0x5d, 0xbe, 0xa7, 0x4d, 0x75, 0xbe, 0x51, 0x18, 0xdc, 0x3e,
  0x8e, 0x62, 0x52, 0xbe, 0xed, 0x5a, 0x84, 0xbe, 0x0c, 0xed, 0x0e, 0xbf,
  0x3c, 0xbd, 0x04, 0xbf, 0xee, 0x6b, 0x4b, 0x3f, 0x40, 0xb4, 0x9f, 0xbe,
  0x06, 0xe7, 0xd6, 0xbe, 0x73, 0xc5, 0x9d, 0x3e, 0x0b, 0x82, 0x76, 0xbe,
  0xb7, 0x5f, 0x1b, 0xbd, 0x3c, 0x34, 0x4f, 0xbf, 0xf2, 0x54, 0xc0, 0xbe,
  0xac, 0x13, 0x0d, 0xbd, 0xa4, 0x37, 0xe4, 0x3d, 0x9d, 0x01, 0xd9, 0x3e,
  0x48, 0xb2, 0xef, 0x3d, 0x3f, 0x45, 0x8f, 0xbe, 0xeb, 0x03, 0xa1, 0xbe,
  0x85, 0x60, 0x8f, 0x3e, 0x16, 0x10, 0x52, 0xbe, 0x66, 0xae, 0x2d, 0x3e,
  0xe3, 0x0d, 0x91, 0xbd, 0xee, 0xa4, 0xe9, 0x3e, 0xbc, 0xbf, 0x9b, 0xbb,
  0x40, 0x8e, 0x0a, 0xbf, 0x18, 0xb7, 0x08, 0x3e, 0x13, 0x94, 0x23, 0x3e,
  0x91, 0x8d, 0x05, 0xbf, 0xcb, 0xb0, 0x1c, 0x3f, 0x89, 0x9e, 0x33, 0x3e,
  0x88, 0x06, 0xd0, 0x3e, 0x8c, 0x8c, 0x83, 0xbe, 0x8f, 0x51, 0xc4, 0xbe,
  0x84, 0xc6, 0x5b, 0x3d, 0xcc, 0x9c, 0xb0, 0xbc, 0x6e, 0x18, 0xdd, 0xbd,
  0x7d, 0x69, 0xa0, 0x3e, 0xa2, 0xef, 0x89, 0xbd, 0xa5, 0x3c, 0x98, 0x3e,
  0x8f, 0xce, 0xea, 0xbe, 0x47, 0xca, 0xf1, 0x3d, 0xa6, 0xf8, 0x62, 0x3d,
  0x8a, 0xa7, 0xd1, 0x3d, 0xb5, 0x34, 0x8e, 0xbe, 0xfe, 0x13, 0x7f, 0x3e,
  0x26, 0xa5, 0x5f, 0xbe, 0x18, 0x9d, 0x99, 0x3e, 0x54, 0x28, 0x01, 0xbf,
  0xcf, 0xb0, 0xa2, 0xbe, 0x33, 0x14, 0x28, 0xbd, 0x58, 0xbd, 0xef, 0x3d,
  0x1d, 0xc2, 0x13, 0xbe, 0x5d, 0x48, 0xaa, 0x3e, 0xf5, 0x82, 0x43, 0x3e,
  0x6b, 0xf2, 0xe7, 0x3e, 0x45, 0x89, 0xa1, 0xbe, 0xe3, 0x1e, 0x07, 0xbc,
  0xae, 0x13, 0xac, 0xbe, 0x94, 0x75, 0xbd, 0x3d, 0xfb, 0xa8, 0xf3, 0x3d,
  0xf6, 0xe4, 0x74, 0x3e, 0x98, 0x2f, 0x00, 0x3e, 0x55, 0x42, 0xd8, 0x3e,
  0x9c, 0xff, 0xfb, 0xbe, 0x7f, 0x05, 0x9a, 0x3e, 0xbc, 0x6a, 0xb1, 0x3d,
  0x43, 0x1c, 0x98, 0x3d, 0x22, 0x0d, 0x83, 0x3e, 0x9c, 0x41, 0x9c, 0xbe,
  0xb0, 0x15, 0xb3, 0x3e, 0x30, 0xb3, 0xf6, 0xbe, 0xd1, 0x06, 0xc2, 0xbe,
  0xc6, 0x39, 0xc5, 0x3e, 0x62, 0x89, 0xa5, 0xbe, 0xe7, 0xc6, 0x18, 0xbf,
  0x5a, 0x6d, 0x0b, 0x3f, 0xcf, 0xd6, 0x9f, 0xbe, 0xf5, 0x3b, 0x0f, 0xbd,
  0xf8, 0xa4, 0x35, 0xbe, 0x68, 0x39, 0xd3, 0xbe, 0x66, 0x6d, 0xb3, 0x3e,
  0x61, 0x18, 0x38, 0xbe, 0x3a, 0x67, 0x38, 0x3e, 0x16, 0xce, 0x71, 0x3e,
  0x1c, 0x4e, 0xcd, 0xbc, 0x1a, 0x97, 0xd8, 0xbd, 0x08, 0x4b, 0x82, 0xbe,
  0x21, 0xf0, 0xc8, 0x3d, 0x28, 0x3a, 0xb8, 0x3e, 0x9f, 0xfe, 0x99, 0xbe,
  0x60, 0xdf, 0x7f, 0x3e, 0x9f, 0x15, 0x06, 0x3e, 0x8e, 0x0a, 0x23, 0x3c,
  0xae, 0x59, 0x31, 0x3e, 0x94, 0x4c, 0x1d, 0xbe, 0xc7, 0x87, 0xb3, 0xbd,
  0x73, 0x25, 0xeb, 0x3e, 0xbe, 0x7b, 0xa5, 0xbd, 0x3d, 0xfe, 0x56, 0x3e,
  0x73, 0x96, 0x62, 0x3b, 0x43, 0x21, 0x95, 0xbe, 0xbf, 0x2b, 0xa6, 0x3e,
  0x2b, 0xa4, 0xee, 0xbd, 0x57, 0x7c, 0xac, 0xbe, 0xbc, 0x92, 0x04, 0x3d,
  0xbe, 0xb8, 0x2c, 0xbe, 0x86, 0x47, 0xc6, 0x3e, 0x95, 0x2e, 0x3d, 0x3e,
  0x1d, 0x5d, 0xbc, 0xbe, 0x28, 0x30, 0xd7, 0xbe, 0x0e, 0x5c, 0xb8, 0xbe,
  0xe4, 0x39, 0x16, 0xbe, 0x5d, 0xc8, 0x9f, 0x3e, 0x7a, 0x31, 0x67, 0xbe,
  0xb7, 0x62, 0x90, 0x3e, 0x7b, 0x81, 0x35, 0x3e, 0x24, 0xce, 0x8c, 0xbf,
  0x23, 0xe3, 0xe9, 0x3e, 0x84, 0xf9, 0xea, 0x3d, 0x69, 0x57, 0x22, 0x3d,
  0x1b, 0xdb, 0x66, 0x3e, 0x7b, 0x68, 0x0a, 0xbd, 0x7d, 0x01, 0x70, 0xbd,
  0xe6, 0xfa, 0xff, 0xff, 0x10, 0x00, 0x00, 0x00, 0x0a, 0x00, 0x00, 0x00,
  0x14, 0x00, 0x00, 0x00, 0x60, 0x00, 0x00, 0x00, 0x02, 0x00, 0x00, 0x00,
  0x03, 0x00, 0x00, 0x00, 0x38, 0x00, 0x00, 0x00, 0x49, 0x00, 0x00, 0x00,
  0x73, 0x65, 0x71, 0x75, 0x65, 0x6e, 0x74, 0x69, 0x61, 0x6c, 0x2f, 0x79,
  0x5f, 0x70, 0x72, 0x65, 0x64, 0x2f, 0x4d, 0x61, 0x74, 0x4d, 0x75, 0x6c,
  0x3b, 0x53, 0x74, 0x61, 0x74, 0x65, 0x66, 0x75, 0x6c, 0x50, 0x61, 0x72,
  0x74, 0x69, 0x74, 0x69, 0x6f, 0x6e, 0x65, 0x64, 0x43, 0x61, 0x6c, 0x6c,
  0x2f, 0x73, 0x65, 0x71, 0x75, 0x65, 0x6e, 0x74, 0x69, 0x61, 0x6c, 0x2f,
  0x79, 0x5f, 0x70, 0x72, 0x65, 0x64, 0x2f, 0x4d, 0x61, 0x74, 0x4d, 0x75,
  0x6c, 0x00, 0x00, 0x00, 0x10, 0xfb, 0xff, 0xff, 0xfe, 0xfb, 0xff, 0xff,
  0x04, 0x00, 0x00, 0x00, 0x00, 0x01, 0x00, 0x00, 0xce, 0xac, 0x04, 0xbe,
  0x95, 0x19, 0x8c, 0xbe, 0x50, 0x49, 0x4c, 0x3f, 0x7b, 0x1e, 0xca, 0x3e,
  0xae, 0xeb, 0xdb, 0x3e, 0x49, 0xcc, 0x07, 0xbf, 0x9e, 0x1f, 0x92, 0xbe,
  0xc5, 0x4c, 0xdc, 0x3e, 0xe3, 0xad, 0x7b, 0xbe, 0xe0, 0x47, 0x84, 0x3e,
  0x46, 0xea, 0x09, 0xbf, 0x0e, 0x9e, 0xeb, 0x3d, 0xc1, 0xdb, 0xa4, 0xbe,
  0xc5, 0xb4, 0x2b, 0xbf, 0xd7, 0x47, 0x06, 0xbf, 0xc5, 0xda, 0xe6, 0xbe,
  0x8b, 0xa4, 0x07, 0xbe, 0xb8, 0xe0, 0xca, 0xbe, 0x46, 0xf4, 0x1f, 0x3f,
  0x42, 0x3d, 0x22, 0xbf, 0x3b, 0xc5, 0x29, 0x3e, 0x82, 0x7b, 0x28, 0x3e,
  0x08, 0x3e, 0xa4, 0xbe, 0x19, 0x97, 0x6f, 0xbe, 0x98, 0x9a, 0x4c, 0x3e,
  0xc8, 0x3c, 0xa3, 0x3e, 0x56, 0x61, 0x14, 0x3e, 0xb8, 0x44, 0x94, 0xbd,
  0x59, 0x60, 0x17, 0xbf, 0x58, 0x44, 0xf4, 0xbe, 0x76, 0xae, 0x26, 0xbf,
  0xab, 0x7c, 0x0c, 0xbe, 0x58, 0xbf, 0x6f, 0x3f, 0xd2, 0xe4, 0x04, 0xbf,
  0x97, 0x13, 0x68, 0xbf, 0xd1, 0x41, 0xc8, 0x3e, 0xd5, 0x63, 0x2a, 0xbf,
  0xd7, 0x6c, 0x41, 0x3e, 0xd0, 0x53, 0x1a, 0x3f, 0x9a, 0x3a, 0xd3, 0xbe,
  0x83, 0x24, 0x09, 0xbf, 0x27, 0x51, 0xf2, 0xbd, 0xb8, 0x48, 0xb2, 0xbe,
  0xc5, 0x45, 0xd8, 0x3e, 0xba, 0x78, 0x28, 0x3e, 0x58, 0x0b, 0xa9, 0xbd,
  0x0d, 0x4f, 0xb5, 0xbe, 0xb3, 0x36, 0x9b, 0x3e, 0x60, 0x67, 0x73, 0xbe,
  0x81, 0xba, 0x1a, 0xbf, 0x9e, 0x94, 0x0d, 0xbf, 0x3b, 0x29, 0xa0, 0xbe,
  0x3b, 0xd7, 0xa3, 0xbe, 0x58, 0xf0, 0x35, 0xbe, 0xdd, 0xf2, 0x1a, 0xbd,
  0x98, 0x86, 0x12, 0x3f, 0x8a, 0xff, 0x03, 0xbe, 0xf0, 0x47, 0x5d, 0x3d,
  0xd0, 0xb8, 0xdc, 0x3e, 0xba, 0xf4, 0x42, 0x3e, 0xee, 0x85, 0x5d, 0xbf,
  0x92, 0x63, 0x2b, 0x3f, 0x58, 0x0b, 0x21, 0xbf, 0xeb, 0xd2, 0x00, 0xbf,
  0x66, 0xfc, 0xff, 0xff, 0x10, 0x00, 0x00, 0x00, 0x09, 0x00, 0x00, 0x00,
  0x14, 0x00, 0x00, 0x00, 0x70, 0x00, 0x00, 0x00, 0x02, 0x00, 0x00, 0x00,
  0x08, 0x00, 0x00, 0x00, 0x08, 0x00, 0x00, 0x00, 0x5b, 0x00, 0x00, 0x00,
  0x73, 0x65, 0x71, 0x75, 0x65, 0x6e, 0x74, 0x69, 0x61, 0x6c, 0x2f, 0x64,
  0x65, 0x6e, 0x73, 0x65, 0x2f, 0x54, 0x65, 0x6e, 0x73, 0x6f, 0x72, 0x64,
  0x6f, 0x74, 0x2f, 0x4d, 0x61, 0x74, 0x4d, 0x75, 0x6c, 0x3b, 0x53, 0x74,
  0x61, 0x74, 0x65, 0x66, 0x75, 0x6c, 0x50, 0x61, 0x72, 0x74, 0x69, 0x74,
  0x69, 0x6f, 0x6e, 0x65, 0x64, 0x43, 0x61, 0x6c, 0x6c, 0x2f, 0x73, 0x65,
  0x71, 0x75, 0x65, 0x6e, 0x74, 0x69, 0x61, 0x6c, 0x2f, 0x64, 0x65, 0x6e,
  0x73, 0x65, 0x2f, 0x54, 0x65, 0x6e, 0x73, 0x6f, 0x72, 0x64, 0x6f, 0x74,
  0x2f, 0x4d, 0x61, 0x74, 0x4d, 0x75, 0x6c, 0x00, 0xa0, 0xfc, 0xff, 0xff,
  0x8e, 0xfd, 0xff, 0xff, 0x04, 0x00, 0x00, 0x00, 0x0c, 0x00, 0x00, 0x00,
  0x6b, 0x78, 0x9b, 0x3f, 0xcd, 0x48, 0x5d, 0xbf, 0x27, 0xdb, 0x9c, 0xbe,
  0x02, 0xfd, 0xff, 0xff, 0x10, 0x00, 0x00, 0x00, 0x08, 0x00, 0x00, 0x00,
  0x10, 0x00, 0x00, 0x00, 0x1c, 0x00, 0x00, 0x00, 0x01, 0x00, 0x00, 0x00,
  0x03, 0x00, 0x00, 0x00, 0x09, 0x00, 0x00, 0x00, 0x75, 0x6e, 0x6b, 0x6e,
  0x6f, 0x77, 0x6e, 0x5f, 0x38, 0x00, 0x00, 0x00, 0xe8, 0xfc, 0xff, 0xff,
  0xd6, 0xfd, 0xff, 0xff, 0x04, 0x00, 0x00, 0x00, 0x20, 0x00, 0x00, 0x00,
  0xa9, 0x7a, 0x83, 0xbe, 0x7b, 0xa3, 0x20, 0x3e, 0xfa, 0x7e, 0x9c, 0x3d,
  0xf2, 0x95, 0xb6, 0xbe, 0x00, 0x17, 0x2d, 0xbd, 0xd7, 0xac, 0xa6, 0x3b,
  0x06, 0xf3, 0x98, 0xbd, 0x3f, 0xa0, 0xa9, 0xbd, 0x5e, 0xfd, 0xff, 0xff,
  0x10, 0x00, 0x00, 0x00, 0x07, 0x00, 0x00, 0x00, 0x10, 0x00, 0x00, 0x00,
  0x1c, 0x00, 0x00, 0x00, 0x01, 0x00, 0x00, 0x00, 0x08, 0x00, 0x00, 0x00,
  0x09, 0x00, 0x00, 0x00, 0x75, 0x6e, 0x6b, 0x6e, 0x6f, 0x77, 0x6e, 0x5f,
  0x36, 0x00, 0x00, 0x00, 0x44, 0xfd, 0xff, 0xff, 0x32, 0xfe, 0xff, 0xff,
  0x04, 0x00, 0x00, 0x00, 0x08, 0x00, 0x00, 0x00, 0x07, 0x00, 0x00, 0x00,
  0x08, 0x00, 0x00, 0x00, 0x2a, 0xfe, 0xff, 0xff, 0x00, 0x00, 0x00, 0x02,
  0x10, 0x00, 0x00, 0x00, 0x06, 0x00, 0x00, 0x00, 0x10, 0x00, 0x00, 0x00,
  0x6c, 0x00, 0x00, 0x00, 0x01, 0x00, 0x00, 0x00, 0x02, 0x00, 0x00, 0x00,
  0x59, 0x00, 0x00, 0x00, 0x73, 0x65, 0x71, 0x75, 0x65, 0x6e, 0x74, 0x69,
  0x61, 0x6c, 0x2f, 0x64, 0x65, 0x6e, 0x73, 0x65, 0x2f, 0x54, 0x65, 0x6e,
  0x73, 0x6f, 0x72, 0x64, 0x6f, 0x74, 0x2f, 0x73, 0x74, 0x61, 0x63, 0x6b,
  0x3b, 0x53, 0x74, 0x61, 0x74, 0x65, 0x66, 0x75, 0x6c, 0x50, 0x61, 0x72,
  0x74, 0x69, 0x74, 0x69, 0x6f, 0x6e, 0x65, 0x64, 0x43, 0x61, 0x6c, 0x6c,
  0x2f, 0x73, 0x65, 0x71, 0x75, 0x65, 0x6e, 0x74, 0x69, 0x61, 0x6c, 0x2f,
  0x64, 0x65, 0x6e, 0x73, 0x65, 0x2f, 0x54, 0x65, 0x6e, 0x73, 0x6f, 0x72,
  0x64, 0x6f, 0x74, 0x2f, 0x73, 0x74, 0x61, 0x63, 0x6b, 0x00, 0x00, 0x00,
  0xdc, 0xfd, 0xff, 0xff, 0xca, 0xfe, 0xff, 0xff, 0x04, 0x00, 0x00, 0x00,
  0x20, 0x00, 0x00, 0x00, 0x73, 0x09, 0x8f, 0x3e, 0xf2, 0x53, 0x04, 0xbd,
  0xa3, 0x5b, 0xa4, 0x3d, 0x07, 0xbc, 0x2a, 0xbe, 0x87, 0x18, 0x8a, 0xbc,
  0xc5, 0x54, 0x2b, 0x3e, 0x64, 0xf4, 0xbc, 0xbc, 0x8b, 0xbc, 0x1e, 0xbe,
  0x52, 0xfe, 0xff, 0xff, 0x10, 0x00, 0x00, 0x00, 0x05, 0x00, 0x00, 0x00,
  0x10, 0x00, 0x00, 0x00, 0x1c, 0x00, 0x00, 0x00, 0x01, 0x00, 0x00, 0x00,
  0x08, 0x00, 0x00, 0x00, 0x09, 0x00, 0x00, 0x00, 0x75, 0x6e, 0x6b, 0x6e,
  0x6f, 0x77, 0x6e, 0x5f, 0x34, 0x00, 0x00, 0x00, 0x38, 0xfe, 0xff, 0xff,
  0x26, 0xff, 0xff, 0xff, 0x04, 0x00, 0x00, 0x00, 0x40, 0x00, 0x00, 0x00,
  0x10, 0x12, 0x26, 0xbe, 0xbb, 0x2a, 0x2d, 0xbd, 0x74, 0xa4, 0x48, 0x3d,
  0x74, 0x52, 0xd5, 0xbe, 0x81, 0x84, 0x2c, 0xbd, 0x42, 0x03, 0x06, 0xbe,
  0xdf, 0xdb, 0x11, 0x3d, 0x79, 0xba, 0x0c, 0xbe, 0xa1, 0x10, 0x4f, 0x3d,
  0x19, 0xed, 0xfb, 0xbe, 0x4f, 0x28, 0x2a, 0xbf, 0x69, 0xe2, 0x96, 0xbd,
  0x0d, 0x92, 0x8b, 0xbe, 0x92, 0x6c, 0x35, 0x3e, 0xa3, 0x1d, 0x05, 0xbe,
  0x7e, 0x70, 0x7e, 0xbe, 0xce, 0xfe, 0xff, 0xff, 0x10, 0x00, 0x00, 0x00,
  0x04, 0x00, 0x00, 0x00, 0x10, 0x00, 0x00, 0x00, 0x1c, 0x00, 0x00, 0x00,
  0x01, 0x00, 0x00, 0x00, 0x10, 0x00, 0x00, 0x00, 0x09, 0x00, 0x00, 0x00,
  0x75, 0x6e, 0x6b, 0x6e, 0x6f, 0x77, 0x6e, 0x5f, 0x32, 0x00, 0x00, 0x00,
  0xb4, 0xfe, 0xff, 0xff, 0xa2, 0xff, 0xff, 0xff, 0x04, 0x00, 0x00, 0x00,
  0x20, 0x00, 0x00, 0x00, 0xfa, 0x2b, 0x91, 0xbf, 0x86, 0x46, 0x8b, 0xbf,
  0x5f, 0xdf, 0xc9, 0xbe, 0x8f, 0xf2, 0xf4, 0x3d, 0xf2, 0x35, 0x70, 0xbf,
  0x06, 0xb8, 0xc1, 0xbe, 0xfb, 0x77, 0x99, 0xbe, 0xec, 0x83, 0x8b, 0xbe,
  0x2a, 0xff, 0xff, 0xff, 0x10, 0x00, 0x00, 0x00, 0x03, 0x00, 0x00, 0x00,
  0x10, 0x00, 0x00, 0x00, 0x1c, 0x00, 0x00, 0x00, 0x01, 0x00, 0x00, 0x00,
  0x08, 0x00, 0x00, 0x00, 0x09, 0x00, 0x00, 0x00, 0x75, 0x6e, 0x6b, 0x6e,
  0x6f, 0x77, 0x6e, 0x5f, 0x30, 0x00, 0x00, 0x00, 0x60, 0xff, 0xff, 0xff,
  0x00, 0x00, 0x06, 0x00, 0x08, 0x00, 0x04, 0x00, 0x06, 0x00, 0x00, 0x00,
  0x04, 0x00, 0x00, 0x00, 0x08, 0x00, 0x00, 0x00, 0xff, 0xff, 0xff, 0xff,
  0x38, 0x00, 0x00, 0x00, 0x00, 0x00, 0x0e, 0x00, 0x18, 0x00, 0x08, 0x00,
  0x07, 0x00, 0x0c, 0x00, 0x10, 0x00, 0x14, 0x00, 0x0e, 0x00, 0x00, 0x00,
  0x00, 0x00, 0x00, 0x02, 0x10, 0x00, 0x00, 0x00, 0x02, 0x00, 0x00, 0x00,
  0x10, 0x00, 0x00, 0x00, 0x60, 0x00, 0x00, 0x00, 0x01, 0x00, 0x00, 0x00,
  0x02, 0x00, 0x00, 0x00, 0x49, 0x00, 0x00, 0x00, 0x73, 0x65, 0x71, 0x75,
  0x65, 0x6e, 0x74, 0x69, 0x61, 0x6c, 0x2f, 0x66, 0x6c, 0x61, 0x74, 0x74,
  0x65, 0x6e, 0x2f, 0x43, 0x6f, 0x6e, 0x73, 0x74, 0x3b, 0x53, 0x74, 0x61,
  0x74, 0x65, 0x66, 0x75, 0x6c, 0x50, 0x61, 0x72, 0x74, 0x69, 0x74, 0x69,
  0x6f, 0x6e, 0x65, 0x64, 0x43, 0x61, 0x6c, 0x6c, 0x2f, 0x73, 0x65, 0x71,
  0x75, 0x65, 0x6e, 0x74, 0x69, 0x61, 0x6c, 0x2f, 0x66, 0x6c, 0x61, 0x74,
  0x74, 0x65, 0x6e, 0x2f, 0x43, 0x6f, 0x6e, 0x73, 0x74, 0x00, 0x00, 0x00,
  0x04, 0x00, 0x06, 0x00, 0x04, 0x00, 0x00, 0x00, 0x00, 0x00, 0x0e, 0x00,
  0x14, 0x00, 0x04, 0x00, 0x00, 0x00, 0x08, 0x00, 0x0c, 0x00, 0x10, 0x00,
  0x0e, 0x00, 0x00, 0x00, 0x10, 0x00, 0x00, 0x00, 0x01, 0x00, 0x00, 0x00,
  0x14, 0x00, 0x00, 0x00, 0x24, 0x00, 0x00, 0x00, 0x02, 0x00, 0x00, 0x00,
  0x01, 0x00, 0x00, 0x00, 0x7d, 0x02, 0x00, 0x00, 0x0d, 0x00, 0x00, 0x00,
  0x72, 0x65, 0x73, 0x68, 0x61, 0x70, 0x65, 0x5f, 0x69, 0x6e, 0x70, 0x75,
  0x74, 0x00, 0x00, 0x00, 0xfc, 0xff, 0xff, 0xff, 0x04, 0x00, 0x04, 0x00,
  0x04, 0x00, 0x00, 0x00
};
unsigned int impulse_2_trained_tflite_len = 14428;
