const unsigned char trained_tflite[] = {
  0x1c, 0x00, 0x00, 0x00, 0x54, 0x46, 0x4c, 0x33, 0x00, 0x00, 0x12, 0x00,
  0x1c, 0x00, 0x04, 0x00, 0x08, 0x00, 0x0c, 0x00, 0x10, 0x00, 0x14, 0x00,
  0x00, 0x00, 0x18, 0x00, 0x12, 0x00, 0x00, 0x00, 0x03, 0x00, 0x00, 0x00,
  0xb0, 0x0d, 0x00, 0x00, 0x8c, 0x05, 0x00, 0x00, 0x74, 0x05, 0x00, 0x00,
  0x3c, 0x00, 0x00, 0x00, 0x04, 0x00, 0x00, 0x00, 0x01, 0x00, 0x00, 0x00,
  0x0c, 0x00, 0x00, 0x00, 0x08, 0x00, 0x0c, 0x00, 0x04, 0x00, 0x08, 0x00,
  0x08, 0x00, 0x00, 0x00, 0x08, 0x00, 0x00, 0x00, 0x0c, 0x00, 0x00, 0x00,
  0x13, 0x00, 0x00, 0x00, 0x6d, 0x69, 0x6e, 0x5f, 0x72, 0x75, 0x6e, 0x74,
  0x69, 0x6d, 0x65, 0x5f, 0x76, 0x65, 0x72, 0x73, 0x69, 0x6f, 0x6e, 0x00,
  0x0d, 0x00, 0x00, 0x00, 0x2c, 0x05, 0x00, 0x00, 0x18, 0x05, 0x00, 0x00,
  0xac, 0x04, 0x00, 0x00, 0x68, 0x04, 0x00, 0x00, 0x44, 0x04, 0x00, 0x00,
  0xa0, 0x01, 0x00, 0x00, 0xbc, 0x00, 0x00, 0x00, 0x78, 0x00, 0x00, 0x00,
  0x6c, 0x00, 0x00, 0x00, 0x58, 0x00, 0x00, 0x00, 0x44, 0x00, 0x00, 0x00,
  0x30, 0x00, 0x00, 0x00, 0x04, 0x00, 0x00, 0x00, 0x76, 0xfa, 0xff, 0xff,
  0x04, 0x00, 0x00, 0x00, 0x10, 0x00, 0x00, 0x00, 0x31, 0x2e, 0x35, 0x2e,
  0x30, 0x00, 0x00, 0x00, 0x00, 0x00, 0x00, 0x00, 0x00, 0x00, 0x00, 0x00,
  0x00, 0x00, 0x00, 0x00, 0x00, 0x00, 0x00, 0x00, 0x00, 0x00, 0x00, 0x00,
  0x6c, 0xfa, 0xff, 0xff, 0x00, 0x00, 0x00, 0x00, 0x00, 0x00, 0x00, 0x00,
  0x00, 0x00, 0x00, 0x00, 0x7c, 0xfa, 0xff, 0xff, 0x00, 0x00, 0x00, 0x00,
  0x00, 0x00, 0x00, 0x00, 0x00, 0x00, 0x00, 0x00, 0x8c, 0xfa, 0xff, 0xff,
  0x00, 0x00, 0x00, 0x00, 0x00, 0x00, 0x00, 0x00, 0x00, 0x00, 0x00, 0x00,
  0x9c, 0xfa, 0xff, 0xff, 0x00, 0x00, 0x00, 0x00, 0xd6, 0xfa, 0xff, 0xff,
  0x04, 0x00, 0x00, 0x00, 0x28, 0x00, 0x00, 0x00, 0x0d, 0xf3, 0xff, 0x11,
  0xe3, 0xd7, 0xb8, 0x23, 0x02, 0x02, 0x3a, 0xf5, 0x39, 0x12, 0x1c, 0x11,
  0x2e, 0xd5, 0x25, 0x37, 0x95, 0xc1, 0xd1, 0x42, 0x22, 0x33, 0x05, 0xfc,
  0x1e, 0xca, 0x81, 0x3a, 0x25, 0xe3, 0xf6, 0xfe, 0xfb, 0xc4, 0xb9, 0x52,
  0x00, 0x00, 0x00, 0x00, 0x00, 0x00, 0x00, 0x00, 0x00, 0x00, 0x00, 0x00,
  0x16, 0xfb, 0xff, 0xff, 0x04, 0x00, 0x00, 0x00, 0xc8, 0x00, 0x00, 0x00,
  0xa6, 0xfd, 0x3e, 0x09, 0x7d, 0xfe, 0xe4, 0x30, 0xcc, 0xc0, 0xdb, 0xe1,
  0x48, 0x69, 0xd1, 0x1b, 0xb8, 0x04, 0x0d, 0x09, 0xca, 0x06, 0xd8, 0x1a,
  0x0f, 0xfd, 0x31, 0xdd, 0xe3, 0xbf, 0x03, 0xbe, 0xe4, 0xe7, 0xb5, 0xb6,
  0xda, 0x2d, 0x1a, 0xb5, 0xbf, 0x33, 0x13, 0xd2, 0x31, 0xf9, 0x1c, 0xdd,
  0x3f, 0x36, 0xc9, 0xd7, 0x12, 0xb3, 0x0f, 0xe4, 0xe9, 0x48, 0xb0, 0xe3,
  0x07, 0xf7, 0x98, 0xc9, 0xcb, 0x14, 0x45, 0x2d, 0x3f, 0xc5, 0x5f, 0x19,
  0x1f, 0xc1, 0xf8, 0x7f, 0x19, 0x2b, 0x25, 0xd6, 0x34, 0x22, 0x01, 0xcf,
  0xe5, 0x3d, 0xff, 0xe8, 0xc8, 0x3f, 0x16, 0xa3, 0xd9, 0x32, 0xd7, 0x40,
  0x23, 0xd4, 0x54, 0x06, 0x66, 0x43, 0xd0, 0x12, 0xe9, 0xde, 0x17, 0xdf,
  0x43, 0xa9, 0xe8, 0x41, 0xce, 0x20, 0xc8, 0x73, 0xc5, 0x0e, 0xb1, 0x2e,
  0x3c, 0xf8, 0x3d, 0x3c, 0x59, 0xe1, 0x0a, 0x1b, 0x1a, 0x3b, 0xb1, 0x27,
  0xaf, 0xf4, 0xef, 0x17, 0x2b, 0xec, 0x2e, 0xd3, 0x0a, 0x4e, 0xa0, 0xbc,
  0x42, 0xd5, 0xf5, 0xaa, 0x3b, 0x29, 0x5a, 0x3b, 0x0b, 0xf7, 0xdb, 0x14,
  0xd8, 0x1c, 0xc2, 0x14, 0xde, 0x33, 0x23, 0x22, 0x58, 0xf3, 0x29, 0xac,
  0xea, 0xbf, 0x16, 0x34, 0x42, 0x4c, 0xe8, 0x41, 0xc7, 0x43, 0x08, 0xfc,
  0xc5, 0x17, 0x2b, 0x37, 0xef, 0x5b, 0x31, 0xf8, 0x54, 0xfd, 0xe3, 0x31,
  0xb6, 0x02, 0xdf, 0x12, 0x4a, 0x43, 0x06, 0x53, 0x00, 0x00, 0x00, 0x00,
  0x00, 0x00, 0x00, 0x00, 0x00, 0x00, 0x00, 0x00, 0xf6, 0xfb, 0xff, 0xff,
  0x04, 0x00, 0x00, 0x00, 0x94, 0x02, 0x00, 0x00, 0xc6, 0xd5, 0xd2, 0x2b,
  0xfa, 0x16, 0xc9, 0xd2, 0xbf, 0xf5, 0x1f, 0xfa, 0xbd, 0x6d, 0x3b, 0x4f,
  0x33, 0xc8, 0x61, 0xd5, 0x46, 0x9e, 0x7e, 0xfa, 0x0b, 0x0e, 0xf3, 0x4b,
  0x0b, 0x21, 0xd7, 0xcc, 0x22, 0x07, 0x0f, 0xfd, 0xde, 0x0c, 0x46, 0x2e,
  0x3c, 0xbd, 0x2f, 0x26, 0xd6, 0xee, 0xb9, 0xd0, 0xdd, 0xdf, 0xbc, 0x32,
  0x1e, 0xf6, 0xd2, 0xbd, 0xcf, 0x13, 0xcf, 0x0e, 0x1f, 0xd2, 0x00, 0x38,
  0x42, 0xb1, 0x1f, 0xeb, 0xde, 0x2d, 0x1c, 0x36, 0xe0, 0xf5, 0xf1, 0x41,
  0x26, 0xf1, 0xf2, 0xea, 0x3f, 0xd3, 0xf5, 0x20, 0x2f, 0xb9, 0x4e, 0x28,
  0xc2, 0x0f, 0xc5, 0x2d, 0xec, 0xd0, 0xeb, 0xba, 0xb9, 0x24, 0xa0, 0xa6,
  0xda, 0xb4, 0x0e, 0x06, 0x0a, 0xbd, 0xfd, 0x01, 0x35, 0xf3, 0xaf, 0xfd,
  0x15, 0xf6, 0xcc, 0xe0, 0xe5, 0x37, 0x23, 0xa5, 0xc3, 0x40, 0xea, 0xe8,
  0x35, 0xf8, 0xdb, 0x30, 0xfc, 0xf5, 0x2c, 0xf8, 0x03, 0x5d, 0xd2, 0x47,
  0x24, 0x52, 0xd0, 0xe1, 0x0a, 0x16, 0x1c, 0x0c, 0x30, 0xf4, 0xe3, 0x06,
  0x07, 0x06, 0x08, 0x0a, 0x0b, 0xe7, 0xc7, 0x1d, 0xdb, 0xb3, 0x29, 0x04,
  0x33, 0xd3, 0xfe, 0xc9, 0xcb, 0x40, 0x00, 0x09, 0x01, 0x16, 0x2c, 0x26,
  0x33, 0x15, 0xd9, 0xf2, 0xe8, 0x73, 0xf1, 0x46, 0x26, 0xfb, 0x39, 0x45,
  0x58, 0xf1, 0xd2, 0xe5, 0xfc, 0xbd, 0x0c, 0x0e, 0xe4, 0x31, 0xf0, 0x1e,
  0x46, 0x01, 0xbf, 0x40, 0xf0, 0xdd, 0xdc, 0x10, 0x10, 0xe8, 0xd5, 0x23,
  0xba, 0xbe, 0xad, 0xc2, 0x3d, 0x0c, 0xea, 0x1f, 0x0e, 0xde, 0x08, 0xf0,
  0x40, 0xbe, 0x0c, 0xfa, 0xd3, 0x05, 0x0d, 0xe4, 0x1b, 0xe2, 0xc8, 0xf4,
  0x5a, 0xd9, 0xfc, 0xcc, 0x4f, 0x17, 0xc6, 0x4a, 0xd3, 0x3e, 0xe4, 0xd7,
  0xeb, 0xe2, 0x05, 0x0e, 0xd0, 0x13, 0xf7, 0xf5, 0xd1, 0xc1, 0xfe, 0xff,
  0xc8, 0x41, 0x22, 0x25, 0x36, 0xc8, 0x4f, 0xc9, 0x0d, 0x15, 0x12, 0xac,
  0x24, 0x18, 0xdd, 0xe6, 0x15, 0xba, 0xa9, 0x3f, 0xfb, 0xd7, 0xa8, 0xc5,
  0x03, 0xe8, 0x2f, 0xf5, 0xec, 0xe0, 0xe8, 0xcc, 0xd5, 0x3c, 0xb3, 0x06,
  0x32, 0xf6, 0xdc, 0x13, 0xd4, 0xfd, 0xfb, 0x08, 0x1f, 0xbd, 0xfd, 0xfc,
  0xee, 0x28, 0xf8, 0x04, 0xe8, 0xc9, 0xff, 0xfb, 0xde, 0x09, 0x3b, 0x47,
  0xc5, 0x32, 0xd0, 0x05, 0x3c, 0x46, 0xd7, 0xf2, 0xde, 0x4d, 0x3e, 0xc9,
  0x1e, 0x06, 0xd1, 0xdb, 0xc4, 0xe5, 0x5b, 0xfb, 0x2c, 0x00, 0x02, 0x34,
  0x08, 0x56, 0x1b, 0x56, 0x12, 0xda, 0xe5, 0x3f, 0x10, 0x05, 0xe4, 0x10,
  0x46, 0xd6, 0xf3, 0x3b, 0xdf, 0x47, 0x30, 0xeb, 0x59, 0x05, 0xca, 0x36,
  0x28, 0xf2, 0xeb, 0xfe, 0x45, 0x0a, 0x2a, 0x31, 0x3e, 0xe5, 0x36, 0x01,
  0xc2, 0xcd, 0x18, 0x02, 0x24, 0x32, 0x2e, 0x1d, 0xd8, 0xfa, 0x09, 0x34,
  0xc6, 0xe9, 0x38, 0xc9, 0x3e, 0xc0, 0x19, 0xc8, 0x19, 0x39, 0x09, 0xdc,
  0x3a, 0xea, 0x12, 0xcf, 0xf2, 0x3c, 0xf5, 0xde, 0xcb, 0x44, 0x51, 0xb7,
  0x2a, 0xfa, 0xb8, 0xee, 0xb7, 0xec, 0x4f, 0xf8, 0xc9, 0x06, 0xcf, 0x21,
  0x44, 0xf4, 0x39, 0xef, 0xf0, 0x00, 0x3c, 0xe1, 0x34, 0x06, 0xef, 0x21,
  0xe4, 0x0e, 0x2e, 0x43, 0x3d, 0x4a, 0xd8, 0x16, 0x0a, 0xdb, 0xdb, 0x08,
  0x35, 0xac, 0xdd, 0x0d, 0xda, 0x9f, 0x25, 0x18, 0xfa, 0x35, 0xb5, 0xa9,
  0x40, 0x08, 0xe1, 0xcb, 0x5b, 0xf0, 0x33, 0xf8, 0x36, 0x40, 0x15, 0xf3,
  0xcc, 0x03, 0xd2, 0xfb, 0x1e, 0x03, 0xe6, 0xeb, 0xf2, 0xe0, 0x1f, 0x2e,
  0xe3, 0x2c, 0x3c, 0x1a, 0xd9, 0x0b, 0xf0, 0x23, 0x17, 0x0c, 0x46, 0xdb,
  0x7b, 0xeb, 0x4a, 0x1a, 0x69, 0xf0, 0xcc, 0xdf, 0x2e, 0xd5, 0x54, 0x0e,
  0x1d, 0x7f, 0xeb, 0x26, 0x5b, 0x3c, 0x35, 0x17, 0xeb, 0x49, 0xef, 0x12,
  0x1c, 0x4f, 0x39, 0x22, 0x3c, 0xe4, 0xe1, 0xdd, 0xbb, 0x34, 0x24, 0x02,
  0xf3, 0xf9, 0xf0, 0xd1, 0xf2, 0x11, 0xf9, 0xb8, 0xc9, 0xb1, 0xc2, 0x1b,
  0x29, 0x1b, 0xb6, 0xf7, 0xd7, 0xb2, 0xd5, 0x2f, 0x28, 0x12, 0xe7, 0xfe,
  0x45, 0x3d, 0x04, 0xee, 0xf3, 0xd5, 0xf9, 0xae, 0xb4, 0x3c, 0xd7, 0x05,
  0x2f, 0xcc, 0xfe, 0xff, 0x19, 0x07, 0xe0, 0xea, 0xe1, 0xfb, 0xec, 0xcc,
  0x36, 0xb1, 0xe2, 0x23, 0xb8, 0x3c, 0xed, 0xc1, 0x41, 0x25, 0x1e, 0x26,
  0x06, 0x06, 0xe3, 0x07, 0x54, 0x4c, 0x45, 0x28, 0x10, 0xe2, 0xfe, 0xfd,
  0xd4, 0xda, 0x54, 0x05, 0xea, 0x49, 0xf6, 0x06, 0xce, 0x00, 0x43, 0xd2,
  0xf2, 0x5c, 0xd8, 0xc7, 0x42, 0xf6, 0x18, 0xfd, 0x35, 0x28, 0x4a, 0x02,
  0x3e, 0x4c, 0x1c, 0x25, 0x01, 0x0d, 0xd5, 0x59, 0x5d, 0x08, 0x39, 0x20,
  0xe1, 0x3d, 0x28, 0x1b, 0xd3, 0x05, 0xf8, 0xf5, 0x46, 0x2e, 0xb2, 0x1f,
  0x29, 0xea, 0x2f, 0xaa, 0x92, 0xab, 0xbb, 0x3e, 0x96, 0xfe, 0xff, 0xff,
  0x04, 0x00, 0x00, 0x00, 0x10, 0x00, 0x00, 0x00, 0xb5, 0x01, 0x00, 0x00,
  0x0b, 0xff, 0xff, 0xff, 0x20, 0xff, 0xff, 0xff, 0x54, 0xff, 0xff, 0xff,
  0x00, 0x00, 0x00, 0x00, 0xb6, 0xfe, 0xff, 0xff, 0x04, 0x00, 0x00, 0x00,
  0x28, 0x00, 0x00, 0x00, 0x04, 0x01, 0x00, 0x00, 0xcd, 0xff, 0xff, 0xff,
  0xd4, 0xff, 0xff, 0xff, 0xfd, 0xff, 0xff, 0xff, 0x91, 0xff, 0xff, 0xff,
  0x4a, 0x00, 0x00, 0x00, 0xdc, 0xff, 0xff, 0xff, 0x08, 0x02, 0x00, 0x00,
  0x93, 0xff, 0xff, 0xff, 0xec, 0xff, 0xff, 0xff, 0x00, 0x00, 0x00, 0x00,
  0x00, 0x00, 0x00, 0x00, 0x00, 0x00, 0x00, 0x00, 0xf6, 0xfe, 0xff, 0xff,
  0x04, 0x00, 0x00, 0x00, 0x50, 0x00, 0x00, 0x00, 0xfa, 0xff, 0xff, 0xff,
  0xf4, 0xff, 0xff, 0xff, 0xff, 0xff, 0xff, 0xff, 0xc2, 0xff, 0xff, 0xff,
  0x53, 0x01, 0x00, 0x00, 0xff, 0xff, 0xff, 0xff, 0xe8, 0xff, 0xff, 0xff,
  0x01, 0x00, 0x00, 0x00, 0xd9, 0xff, 0xff, 0xff, 0xa6, 0x00, 0x00, 0x00,
  0xd3, 0x00, 0x00, 0x00, 0xed, 0xff, 0xff, 0xff, 0xa2, 0x00, 0x00, 0x00,
  0x73, 0x00, 0x00, 0x00, 0x00, 0x00, 0x00, 0x00, 0x7c, 0x00, 0x00, 0x00,
  0xd1, 0xff, 0xff, 0xff, 0xdb, 0xff, 0xff, 0xff, 0x00, 0x00, 0x00, 0x00,
  0x98, 0x00, 0x00, 0x00, 0x00, 0x00, 0x00, 0x00, 0x00, 0x00, 0x00, 0x00,
  0x00, 0x00, 0x00, 0x00, 0x2c, 0xff, 0xff, 0xff, 0x00, 0x00, 0x00, 0x00,
  0x00, 0x00, 0x00, 0x00, 0x00, 0x00, 0x00, 0x00, 0x3c, 0xff, 0xff, 0xff,
  0x0f, 0x00, 0x00, 0x00, 0x4d, 0x4c, 0x49, 0x52, 0x20, 0x43, 0x6f, 0x6e,
  0x76, 0x65, 0x72, 0x74, 0x65, 0x64, 0x2e, 0x00, 0x01, 0x00, 0x00, 0x00,
  0x14, 0x00, 0x00, 0x00, 0x00, 0x00, 0x0e, 0x00, 0x18, 0x00, 0x04, 0x00,
  0x08, 0x00, 0x0c, 0x00, 0x10, 0x00, 0x14, 0x00, 0x0e, 0x00, 0x00, 0x00,
  0x50, 0x01, 0x00, 0x00, 0x44, 0x01, 0x00, 0x00, 0x38, 0x01, 0x00, 0x00,
  0x14, 0x00, 0x00, 0x00, 0x04, 0x00, 0x00, 0x00, 0x04, 0x00, 0x00, 0x00,
  0x6d, 0x61, 0x69, 0x6e, 0x00, 0x00, 0x00, 0x00, 0x04, 0x00, 0x00, 0x00,
  0xe0, 0x00, 0x00, 0x00, 0x98, 0x00, 0x00, 0x00, 0x50, 0x00, 0x00, 0x00,
  0x14, 0x00, 0x00, 0x00, 0x00, 0x00, 0x0e, 0x00, 0x1a, 0x00, 0x08, 0x00,
  0x0c, 0x00, 0x10, 0x00, 0x07, 0x00, 0x14, 0x00, 0x0e, 0x00, 0x00, 0x00,
  0x00, 0x00, 0x00, 0x09, 0x01, 0x00, 0x00, 0x00, 0x24, 0x00, 0x00, 0x00,
  0x18, 0x00, 0x00, 0x00, 0x0c, 0x00, 0x00, 0x00, 0x00, 0x00, 0x06, 0x00,
  0x08, 0x00, 0x04, 0x00, 0x06, 0x00, 0x00, 0x00, 0x00, 0x00, 0x80, 0x3f,
  0x01, 0x00, 0x00, 0x00, 0x0a, 0x00, 0x00, 0x00, 0x01, 0x00, 0x00, 0x00,
  0x09, 0x00, 0x00, 0x00, 0xca, 0xff, 0xff, 0xff, 0x00, 0x00, 0x00, 0x08,
  0x1c, 0x00, 0x00, 0x00, 0x10, 0x00, 0x00, 0x00, 0x08, 0x00, 0x00, 0x00,
  0x04, 0x00, 0x04, 0x00, 0x04, 0x00, 0x00, 0x00, 0x01, 0x00, 0x00, 0x00,
  0x09, 0x00, 0x00, 0x00, 0x03, 0x00, 0x00, 0x00, 0x08, 0x00, 0x00, 0x00,
  0x06, 0x00, 0x00, 0x00, 0x03, 0x00, 0x00, 0x00, 0x00, 0x00, 0x0e, 0x00,
  0x14, 0x00, 0x00, 0x00, 0x08, 0x00, 0x0c, 0x00, 0x07, 0x00, 0x10, 0x00,
  0x0e, 0x00, 0x00, 0x00, 0x00, 0x00, 0x00, 0x08, 0x1c, 0x00, 0x00, 0x00,
  0x10, 0x00, 0x00, 0x00, 0x04, 0x00, 0x00, 0x00, 0xba, 0xff, 0xff, 0xff,
  0x00, 0x00, 0x00, 0x01, 0x01, 0x00, 0x00, 0x00, 0x08, 0x00, 0x00, 0x00,
  0x03, 0x00, 0x00, 0x00, 0x07, 0x00, 0x00, 0x00, 0x05, 0x00, 0x00, 0x00,
  0x02, 0x00, 0x00, 0x00, 0x00, 0x00, 0x0e, 0x00, 0x16, 0x00, 0x00, 0x00,
  0x08, 0x00, 0x0c, 0x00, 0x07, 0x00, 0x10, 0x00, 0x0e, 0x00, 0x00, 0x00,
  0x00, 0x00, 0x00, 0x08, 0x24, 0x00, 0x00, 0x00, 0x18, 0x00, 0x00, 0x00,
  0x0c, 0x00, 0x00, 0x00, 0x00, 0x00, 0x06, 0x00, 0x08, 0x00, 0x07, 0x00,
  0x06, 0x00, 0x00, 0x00, 0x00, 0x00, 0x00, 0x01, 0x01, 0x00, 0x00, 0x00,
  0x07, 0x00, 0x00, 0x00, 0x03, 0x00, 0x00, 0x00, 0x00, 0x00, 0x00, 0x00,
  0x04, 0x00, 0x00, 0x00, 0x01, 0x00, 0x00, 0x00, 0x01, 0x00, 0x00, 0x00,
  0x0a, 0x00, 0x00, 0x00, 0x01, 0x00, 0x00, 0x00, 0x00, 0x00, 0x00, 0x00,
  0x0b, 0x00, 0x00, 0x00, 0x38, 0x06, 0x00, 0x00, 0xc4, 0x05, 0x00, 0x00,
  0x6c, 0x05, 0x00, 0x00, 0x18, 0x05, 0x00, 0x00, 0x6c, 0x04, 0x00, 0x00,
  0xb8, 0x03, 0x00, 0x00, 0x04, 0x03, 0x00, 0x00, 0x10, 0x02, 0x00, 0x00,
  0x14, 0x01, 0x00, 0x00, 0x60, 0x00, 0x00, 0x00, 0x04, 0x00, 0x00, 0x00,
  0x02, 0xfa, 0xff, 0xff, 0x00, 0x00, 0x00, 0x09, 0x44, 0x00, 0x00, 0x00,
  0x0b, 0x00, 0x00, 0x00, 0x2c, 0x00, 0x00, 0x00, 0x04, 0x00, 0x00, 0x00,
  0x64, 0xfa, 0xff, 0xff, 0x18, 0x00, 0x00, 0x00, 0x04, 0x00, 0x00, 0x00,
  0x01, 0x00, 0x00, 0x00, 0x80, 0xff, 0xff, 0xff, 0xff, 0xff, 0xff, 0xff,
  0x00, 0x00, 0x00, 0x00, 0x01, 0x00, 0x00, 0x00, 0x00, 0x00, 0x80, 0x3b,
  0x08, 0x00, 0x00, 0x00, 0x49, 0x64, 0x65, 0x6e, 0x74, 0x69, 0x74, 0x79,
  0x00, 0x00, 0x00, 0x00, 0x02, 0x00, 0x00, 0x00, 0x01, 0x00, 0x00, 0x00,
  0x04, 0x00, 0x00, 0x00, 0x5a, 0xfa, 0xff, 0xff, 0x00, 0x00, 0x00, 0x09,
  0x9c, 0x00, 0x00, 0x00, 0x0a, 0x00, 0x00, 0x00, 0x44, 0x00, 0x00, 0x00,
  0x04, 0x00, 0x00, 0x00, 0x4c, 0xfa, 0xff, 0xff, 0x30, 0x00, 0x00, 0x00,
  0x24, 0x00, 0x00, 0x00, 0x18, 0x00, 0x00, 0x00, 0x04, 0x00, 0x00, 0x00,
  0x01, 0x00, 0x00, 0x00, 0xe9, 0xff, 0xff, 0xff, 0xff, 0xff, 0xff, 0xff,
  0x00, 0x00, 0x00, 0x00, 0x01, 0x00, 0x00, 0x00, 0x02, 0xc5, 0x0c, 0x3e,
  0x01, 0x00, 0x00, 0x00, 0x80, 0x20, 0xa5, 0x41, 0x01, 0x00, 0x00, 0x00,
  0xf3, 0x9f, 0x66, 0xc1, 0x4b, 0x00, 0x00, 0x00, 0x73, 0x65, 0x71, 0x75,
  0x65, 0x6e, 0x74, 0x69, 0x61, 0x6c, 0x2f, 0x79, 0x5f, 0x70, 0x72, 0x65,
  0x64, 0x2f, 0x42, 0x69, 0x61, 0x73, 0x41, 0x64, 0x64, 0x3b, 0x53, 0x74,
  0x61, 0x74, 0x65, 0x66, 0x75, 0x6c, 0x50, 0x61, 0x72, 0x74, 0x69, 0x74,
  0x69, 0x6f, 0x6e, 0x65, 0x64, 0x43, 0x61, 0x6c, 0x6c, 0x2f, 0x73, 0x65,
  0x71, 0x75, 0x65, 0x6e, 0x74, 0x69, 0x61, 0x6c, 0x2f, 0x79, 0x5f, 0x70,
  0x72, 0x65, 0x64, 0x2f, 0x42, 0x69, 0x61, 0x73, 0x41, 0x64, 0x64, 0x00,
  0x02, 0x00, 0x00, 0x00, 0x01, 0x00, 0x00, 0x00, 0x04, 0x00, 0x00, 0x00,
  0x0a, 0xfb, 0xff, 0xff, 0x00, 0x00, 0x00, 0x09, 0xe4, 0x00, 0x00, 0x00,
  0x09, 0x00, 0x00, 0x00, 0x40, 0x00, 0x00, 0x00, 0x04, 0x00, 0x00, 0x00,
  0xfc, 0xfa, 0xff, 0xff, 0x2c, 0x00, 0x00, 0x00, 0x20, 0x00, 0x00, 0x00,
  0x14, 0x00, 0x00, 0x00, 0x04, 0x00, 0x00, 0x00, 0x01, 0x00, 0x00, 0x00,
  0x80, 0xff, 0xff, 0xff, 0xff, 0xff, 0xff, 0xff, 0x01, 0x00, 0x00, 0x00,
  0x11, 0xb9, 0xea, 0x3d, 0x01, 0x00, 0x00, 0x00, 0x58, 0xce, 0xe9, 0x41,
  0x01, 0x00, 0x00, 0x00, 0x00, 0x00, 0x00, 0x00, 0x95, 0x00, 0x00, 0x00,
  0x73, 0x65, 0x71, 0x75, 0x65, 0x6e, 0x74, 0x69, 0x61, 0x6c, 0x2f, 0x64,
  0x65, 0x6e, 0x73, 0x65, 0x5f, 0x31, 0x2f, 0x52, 0x65, 0x6c, 0x75, 0x3b,
  0x53, 0x74, 0x61, 0x74, 0x65, 0x66, 0x75, 0x6c, 0x50, 0x61, 0x72, 0x74,
  0x69, 0x74, 0x69, 0x6f, 0x6e, 0x65, 0x64, 0x43, 0x61, 0x6c, 0x6c, 0x2f,
  0x73, 0x65, 0x71, 0x75, 0x65, 0x6e, 0x74, 0x69, 0x61, 0x6c, 0x2f, 0x64,
  0x65, 0x6e, 0x73, 0x65, 0x5f, 0x31, 0x2f, 0x52, 0x65, 0x6c, 0x75, 0x3b,
  0x73, 0x65, 0x71, 0x75, 0x65, 0x6e, 0x74, 0x69, 0x61, 0x6c, 0x2f, 0x64,
  0x65, 0x6e, 0x73, 0x65, 0x5f, 0x31, 0x2f, 0x42, 0x69, 0x61, 0x73, 0x41,
  0x64, 0x64, 0x3b, 0x53, 0x74, 0x61, 0x74, 0x65, 0x66, 0x75, 0x6c, 0x50,
  0x61, 0x72, 0x74, 0x69, 0x74, 0x69, 0x6f, 0x6e, 0x65, 0x64, 0x43, 0x61,
  0x6c, 0x6c, 0x2f, 0x73, 0x65, 0x71, 0x75, 0x65, 0x6e, 0x74, 0x69, 0x61,
  0x6c, 0x2f, 0x64, 0x65, 0x6e, 0x73, 0x65, 0x5f, 0x31, 0x2f, 0x42, 0x69,
  0x61, 0x73, 0x41, 0x64, 0x64, 0x00, 0x00, 0x00, 0x02, 0x00, 0x00, 0x00,
  0x01, 0x00, 0x00, 0x00, 0x0a, 0x00, 0x00, 0x00, 0x02, 0xfc, 0xff, 0xff,
  0x00, 0x00, 0x00, 0x09, 0xdc, 0x00, 0x00, 0x00, 0x08, 0x00, 0x00, 0x00,
  0x40, 0x00, 0x00, 0x00, 0x04, 0x00, 0x00, 0x00, 0xf4, 0xfb, 0xff, 0xff,
  0x2c, 0x00, 0x00, 0x00, 0x20, 0x00, 0x00, 0x00, 0x14, 0x00, 0x00, 0x00,
  0x04, 0x00, 0x00, 0x00, 0x01, 0x00, 0x00, 0x00, 0x80, 0xff, 0xff, 0xff,
  0xff, 0xff, 0xff, 0xff, 0x01, 0x00, 0x00, 0x00, 0x3e, 0xb1, 0x1f, 0x3e,
  0x01, 0x00, 0x00, 0x00, 0x8d, 0x11, 0x1f, 0x42, 0x01, 0x00, 0x00, 0x00,
  0x00, 0x00, 0x00, 0x00, 0x8d, 0x00, 0x00, 0x00, 0x73, 0x65, 0x71, 0x75,
  0x65, 0x6e, 0x74, 0x69, 0x61, 0x6c, 0x2f, 0x64, 0x65, 0x6e, 0x73, 0x65,
  0x2f, 0x52, 0x65, 0x6c, 0x75, 0x3b, 0x53, 0x74, 0x61, 0x74, 0x65, 0x66,
  0x75, 0x6c, 0x50, 0x61, 0x72, 0x74, 0x69, 0x74, 0x69, 0x6f, 0x6e, 0x65,
  0x64, 0x43, 0x61, 0x6c, 0x6c, 0x2f, 0x73, 0x65, 0x71, 0x75, 0x65, 0x6e,
  0x74, 0x69, 0x61, 0x6c, 0x2f, 0x64, 0x65, 0x6e, 0x73, 0x65, 0x2f, 0x52,
  0x65, 0x6c, 0x75, 0x3b, 0x73, 0x65, 0x71, 0x75, 0x65, 0x6e, 0x74, 0x69,
  0x61, 0x6c, 0x2f, 0x64, 0x65, 0x6e, 0x73, 0x65, 0x2f, 0x42, 0x69, 0x61,
  0x73, 0x41, 0x64, 0x64, 0x3b, 0x53, 0x74, 0x61, 0x74, 0x65, 0x66, 0x75,
  0x6c, 0x50, 0x61, 0x72, 0x74, 0x69, 0x74, 0x69, 0x6f, 0x6e, 0x65, 0x64,
  0x43, 0x61, 0x6c, 0x6c, 0x2f, 0x73, 0x65, 0x71, 0x75, 0x65, 0x6e, 0x74,
  0x69, 0x61, 0x6c, 0x2f, 0x64, 0x65, 0x6e, 0x73, 0x65, 0x2f, 0x42, 0x69,
  0x61, 0x73, 0x41, 0x64, 0x64, 0x00, 0x00, 0x00, 0x02, 0x00, 0x00, 0x00,
  0x01, 0x00, 0x00, 0x00, 0x14, 0x00, 0x00, 0x00, 0xf2, 0xfc, 0xff, 0xff,
  0x00, 0x00, 0x00, 0x09, 0x9c, 0x00, 0x00, 0x00, 0x07, 0x00, 0x00, 0x00,
  0x44, 0x00, 0x00, 0x00, 0x04, 0x00, 0x00, 0x00, 0xe4, 0xfc, 0xff, 0xff,
  0x30, 0x00, 0x00, 0x00, 0x24, 0x00, 0x00, 0x00, 0x18, 0x00, 0x00, 0x00,
  0x04, 0x00, 0x00, 0x00, 0x01, 0x00, 0x00, 0x00, 0x00, 0x00, 0x00, 0x00,
  0x00, 0x00, 0x00, 0x00, 0x00, 0x00, 0x00, 0x00, 0x01, 0x00, 0x00, 0x00,
  0xee, 0xd2, 0x0e, 0x3c, 0x01, 0x00, 0x00, 0x00, 0x8a, 0x4d, 0x36, 0x3f,
  0x01, 0x00, 0x00, 0x00, 0x48, 0xb5, 0x8d, 0xbf, 0x49, 0x00, 0x00, 0x00,
  0x73, 0x65, 0x71, 0x75, 0x65, 0x6e, 0x74, 0x69, 0x61, 0x6c, 0x2f, 0x79,
  0x5f, 0x70, 0x72, 0x65, 0x64, 0x2f, 0x4d, 0x61, 0x74, 0x4d, 0x75, 0x6c,
  0x3b, 0x53, 0x74, 0x61, 0x74, 0x65, 0x66, 0x75, 0x6c, 0x50, 0x61, 0x72,
  0x74, 0x69, 0x74, 0x69, 0x6f, 0x6e, 0x65, 0x64, 0x43, 0x61, 0x6c, 0x6c,
  0x2f, 0x73, 0x65, 0x71, 0x75, 0x65, 0x6e, 0x74, 0x69, 0x61, 0x6c, 0x2f,
  0x79, 0x5f, 0x70, 0x72, 0x65, 0x64, 0x2f, 0x4d, 0x61, 0x74, 0x4d, 0x75,
  0x6c, 0x00, 0x00, 0x00, 0x02, 0x00, 0x00, 0x00, 0x04, 0x00, 0x00, 0x00,
  0x0a, 0x00, 0x00, 0x00, 0xa2, 0xfd, 0xff, 0xff, 0x00, 0x00, 0x00, 0x09,
  0x9c, 0x00, 0x00, 0x00, 0x06, 0x00, 0x00, 0x00, 0x44, 0x00, 0x00, 0x00,
  0x04, 0x00, 0x00, 0x00, 0x94, 0xfd, 0xff, 0xff, 0x30, 0x00, 0x00, 0x00,
  0x24, 0x00, 0x00, 0x00, 0x18, 0x00, 0x00, 0x00, 0x04, 0x00, 0x00, 0x00,
  0x01, 0x00, 0x00, 0x00, 0x00, 0x00, 0x00, 0x00, 0x00, 0x00, 0x00, 0x00,
  0x00, 0x00, 0x00, 0x00, 0x01, 0x00, 0x00, 0x00, 0x06, 0xa2, 0xaf, 0x3b,
  0x01, 0x00, 0x00, 0x00, 0xc2, 0x42, 0x2e, 0x3f, 0x01, 0x00, 0x00, 0x00,
  0x80, 0x25, 0x0f, 0xbf, 0x4b, 0x00, 0x00, 0x00, 0x73, 0x65, 0x71, 0x75,
  0x65, 0x6e, 0x74, 0x69, 0x61, 0x6c, 0x2f, 0x64, 0x65, 0x6e, 0x73, 0x65,
  0x5f, 0x31, 0x2f, 0x4d, 0x61, 0x74, 0x4d, 0x75, 0x6c, 0x3b, 0x53, 0x74,
  0x61, 0x74, 0x65, 0x66, 0x75, 0x6c, 0x50, 0x61, 0x72, 0x74, 0x69, 0x74,
  0x69, 0x6f, 0x6e, 0x65, 0x64, 0x43, 0x61, 0x6c, 0x6c, 0x2f, 0x73, 0x65,
  0x71, 0x75, 0x65, 0x6e, 0x74, 0x69, 0x61, 0x6c, 0x2f, 0x64, 0x65, 0x6e,
  0x73, 0x65, 0x5f, 0x31, 0x2f, 0x4d, 0x61, 0x74, 0x4d, 0x75, 0x6c, 0x00,
  0x02, 0x00, 0x00, 0x00, 0x0a, 0x00, 0x00, 0x00, 0x14, 0x00, 0x00, 0x00,
  0x52, 0xfe, 0xff, 0xff, 0x00, 0x00, 0x00, 0x09, 0x94, 0x00, 0x00, 0x00,
  0x05, 0x00, 0x00, 0x00, 0x40, 0x00, 0x00, 0x00, 0x04, 0x00, 0x00, 0x00,
  0x44, 0xfe, 0xff, 0xff, 0x2c, 0x00, 0x00, 0x00, 0x20, 0x00, 0x00, 0x00,
  0x14, 0x00, 0x00, 0x00, 0x04, 0x00, 0x00, 0x00, 0x01, 0x00, 0x00, 0x00,
  0x00, 0x00, 0x00, 0x00, 0x00, 0x00, 0x00, 0x00, 0x01, 0x00, 0x00, 0x00,
  0x00, 0xc2, 0x8c, 0x3b, 0x01, 0x00, 0x00, 0x00, 0x7c, 0xa8, 0x0b, 0x3f,
  0x01, 0x00, 0x00, 0x00, 0x27, 0x02, 0xf3, 0xbe, 0x47, 0x00, 0x00, 0x00,
  0x73, 0x65, 0x71, 0x75, 0x65, 0x6e, 0x74, 0x69, 0x61, 0x6c, 0x2f, 0x64,
  0x65, 0x6e, 0x73, 0x65, 0x2f, 0x4d, 0x61, 0x74, 0x4d, 0x75, 0x6c, 0x3b,
  0x53, 0x74, 0x61, 0x74, 0x65, 0x66, 0x75, 0x6c, 0x50, 0x61, 0x72, 0x74,
  0x69, 0x74, 0x69, 0x6f, 0x6e, 0x65, 0x64, 0x43, 0x61, 0x6c, 0x6c, 0x2f,
  0x73, 0x65, 0x71, 0x75, 0x65, 0x6e, 0x74, 0x69, 0x61, 0x6c, 0x2f, 0x64,
  0x65, 0x6e, 0x73, 0x65, 0x2f, 0x4d, 0x61, 0x74, 0x4d, 0x75, 0x6c, 0x00,
  0x02, 0x00, 0x00, 0x00, 0x14, 0x00, 0x00, 0x00, 0x21, 0x00, 0x00, 0x00,
  0xfa, 0xfe, 0xff, 0xff, 0x00, 0x00, 0x00, 0x02, 0x40, 0x00, 0x00, 0x00,
  0x04, 0x00, 0x00, 0x00, 0x28, 0x00, 0x00, 0x00, 0x04, 0x00, 0x00, 0x00,
  0x5c, 0xff, 0xff, 0xff, 0x14, 0x00, 0x00, 0x00, 0x04, 0x00, 0x00, 0x00,
  0x01, 0x00, 0x00, 0x00, 0x00, 0x00, 0x00, 0x00, 0x00, 0x00, 0x00, 0x00,
  0x01, 0x00, 0x00, 0x00, 0x0d, 0xf4, 0x82, 0x3a, 0x09, 0x00, 0x00, 0x00,
  0x75, 0x6e, 0x6b, 0x6e, 0x6f, 0x77, 0x6e, 0x5f, 0x34, 0x00, 0x00, 0x00,
  0x01, 0x00, 0x00, 0x00, 0x04, 0x00, 0x00, 0x00, 0x4a, 0xff, 0xff, 0xff,
  0x00, 0x00, 0x00, 0x02, 0x44, 0x00, 0x00, 0x00, 0x03, 0x00, 0x00, 0x00,
  0x2c, 0x00, 0x00, 0x00, 0x04, 0x00, 0x00, 0x00, 0xac, 0xff, 0xff, 0xff,
  0x18, 0x00, 0x00, 0x00, 0x04, 0x00, 0x00, 0x00, 0x01, 0x00, 0x00, 0x00,
  0x00, 0x00, 0x00, 0x00, 0x00, 0x00, 0x00, 0x00, 0x00, 0x00, 0x00, 0x00,
  0x01, 0x00, 0x00, 0x00, 0x77, 0x1e, 0x5b, 0x3a, 0x09, 0x00, 0x00, 0x00,
  0x75, 0x6e, 0x6b, 0x6e, 0x6f, 0x77, 0x6e, 0x5f, 0x32, 0x00, 0x00, 0x00,
  0x01, 0x00, 0x00, 0x00, 0x0a, 0x00, 0x00, 0x00, 0x9e, 0xff, 0xff, 0xff,
  0x00, 0x00, 0x00, 0x02, 0x50, 0x00, 0x00, 0x00, 0x02, 0x00, 0x00, 0x00,
  0x38, 0x00, 0x00, 0x00, 0x10, 0x00, 0x00, 0x00, 0x0c, 0x00, 0x0c, 0x00,
  0x00, 0x00, 0x00, 0x00, 0x04, 0x00, 0x08, 0x00, 0x0c, 0x00, 0x00, 0x00,
  0x18, 0x00, 0x00, 0x00, 0x04, 0x00, 0x00, 0x00, 0x01, 0x00, 0x00, 0x00,
  0x00, 0x00, 0x00, 0x00, 0x00, 0x00, 0x00, 0x00, 0x00, 0x00, 0x00, 0x00,
  0x01, 0x00, 0x00, 0x00, 0x8c, 0x3f, 0x9d, 0x3a, 0x09, 0x00, 0x00, 0x00,
  0x75, 0x6e, 0x6b, 0x6e, 0x6f, 0x77, 0x6e, 0x5f, 0x30, 0x00, 0x00, 0x00,
  0x01, 0x00, 0x00, 0x00, 0x14, 0x00, 0x00, 0x00, 0x00, 0x00, 0x0e, 0x00,
  0x18, 0x00, 0x08, 0x00, 0x07, 0x00, 0x0c, 0x00, 0x10, 0x00, 0x14, 0x00,
  0x0e, 0x00, 0x00, 0x00, 0x00, 0x00, 0x00, 0x09, 0x64, 0x00, 0x00, 0x00,
  0x01, 0x00, 0x00, 0x00, 0x50, 0x00, 0x00, 0x00, 0x10, 0x00, 0x00, 0x00,
  0x0c, 0x00, 0x14, 0x00, 0x04, 0x00, 0x08, 0x00, 0x0c, 0x00, 0x10, 0x00,
  0x0c, 0x00, 0x00, 0x00, 0x30, 0x00, 0x00, 0x00, 0x24, 0x00, 0x00, 0x00,
  0x18, 0x00, 0x00, 0x00, 0x04, 0x00, 0x00, 0x00, 0x01, 0x00, 0x00, 0x00,
  0x80, 0xff, 0xff, 0xff, 0xff, 0xff, 0xff, 0xff, 0x00, 0x00, 0x00, 0x00,
  0x01, 0x00, 0x00, 0x00, 0xec, 0xfe, 0x8e, 0x3e, 0x01, 0x00, 0x00, 0x00,
  0xed, 0x6f, 0x8e, 0x42, 0x01, 0x00, 0x00, 0x00, 0x00, 0x00, 0x00, 0x00,
  0x07, 0x00, 0x00, 0x00, 0x78, 0x5f, 0x69, 0x6e, 0x70, 0x75, 0x74, 0x00,
  0x02, 0x00, 0x00, 0x00, 0x01, 0x00, 0x00, 0x00, 0x21, 0x00, 0x00, 0x00,
  0x02, 0x00, 0x00, 0x00, 0x2c, 0x00, 0x00, 0x00, 0x10, 0x00, 0x00, 0x00,
  0x00, 0x00, 0x0a, 0x00, 0x0e, 0x00, 0x07, 0x00, 0x00, 0x00, 0x08, 0x00,
  0x0a, 0x00, 0x00, 0x00, 0x00, 0x00, 0x00, 0x19, 0x02, 0x00, 0x00, 0x00,
  0x00, 0x00, 0x0a, 0x00, 0x0c, 0x00, 0x07, 0x00, 0x00, 0x00, 0x08, 0x00,
  0x0a, 0x00, 0x00, 0x00, 0x00, 0x00, 0x00, 0x09, 0x04, 0x00, 0x00, 0x00
};
unsigned int trained_tflite_len = 3600;
