const unsigned char trained_tflite[] = {
  0x1c, 0x00, 0x00, 0x00, 0x54, 0x46, 0x4c, 0x33, 0x00, 0x00, 0x12, 0x00,
  0x1c, 0x00, 0x04, 0x00, 0x08, 0x00, 0x0c, 0x00, 0x10, 0x00, 0x14, 0x00,
  0x00, 0x00, 0x18, 0x00, 0x12, 0x00, 0x00, 0x00, 0x03, 0x00, 0x00, 0x00,
  0xb0, 0x0d, 0x00, 0x00, 0x8c, 0x05, 0x00, 0x00, 0x74, 0x05, 0x00, 0x00,
  0x3c, 0x00, 0x00, 0x00, 0x04, 0x00, 0x00, 0x00, 0x01, 0x00, 0x00, 0x00,
  0x0c, 0x00, 0x00, 0x00, 0x08, 0x00, 0x0c, 0x00, 0x04, 0x00, 0x08, 0x00,
  0x08, 0x00, 0x00, 0x00, 0x08, 0x00, 0x00, 0x00, 0x0c, 0x00, 0x00, 0x00,
  0x13, 0x00, 0x00, 0x00, 0x6d, 0x69, 0x6e, 0x5f, 0x72, 0x75, 0x6e, 0x74,
  0x69, 0x6d, 0x65, 0x5f, 0x76, 0x65, 0x72, 0x73, 0x69, 0x6f, 0x6e, 0x00,
  0x0d, 0x00, 0x00, 0x00, 0x2c, 0x05, 0x00, 0x00, 0x18, 0x05, 0x00, 0x00,
  0xac, 0x04, 0x00, 0x00, 0x68, 0x04, 0x00, 0x00, 0x44, 0x04, 0x00, 0x00,
  0xa0, 0x01, 0x00, 0x00, 0xbc, 0x00, 0x00, 0x00, 0x78, 0x00, 0x00, 0x00,
  0x6c, 0x00, 0x00, 0x00, 0x58, 0x00, 0x00, 0x00, 0x44, 0x00, 0x00, 0x00,
  0x30, 0x00, 0x00, 0x00, 0x04, 0x00, 0x00, 0x00, 0x76, 0xfa, 0xff, 0xff,
  0x04, 0x00, 0x00, 0x00, 0x10, 0x00, 0x00, 0x00, 0x31, 0x2e, 0x35, 0x2e,
  0x30, 0x00, 0x00, 0x00, 0x00, 0x00, 0x00, 0x00, 0x00, 0x00, 0x00, 0x00,
  0x00, 0x00, 0x00, 0x00, 0x00, 0x00, 0x00, 0x00, 0x00, 0x00, 0x00, 0x00,
  0x6c, 0xfa, 0xff, 0xff, 0x00, 0x00, 0x00, 0x00, 0x00, 0x00, 0x00, 0x00,
  0x00, 0x00, 0x00, 0x00, 0x7c, 0xfa, 0xff, 0xff, 0x00, 0x00, 0x00, 0x00,
  0x00, 0x00, 0x00, 0x00, 0x00, 0x00, 0x00, 0x00, 0x8c, 0xfa, 0xff, 0xff,
  0x00, 0x00, 0x00, 0x00, 0x00, 0x00, 0x00, 0x00, 0x00, 0x00, 0x00, 0x00,
  0x9c, 0xfa, 0xff, 0xff, 0x00, 0x00, 0x00, 0x00, 0xd6, 0xfa, 0xff, 0xff,
  0x04, 0x00, 0x00, 0x00, 0x28, 0x00, 0x00, 0x00, 0xf3, 0xfa, 0x28, 0x44,
  0xa4, 0x81, 0x81, 0x00, 0x2f, 0xbb, 0x17, 0xff, 0x1c, 0x1a, 0xf5, 0x0b,
  0x07, 0xe8, 0x20, 0x26, 0xd6, 0xd9, 0xaa, 0xf5, 0x32, 0x14, 0x2f, 0xf5,
  0xf4, 0xd4, 0xdc, 0x1f, 0x25, 0xbb, 0x10, 0x1d, 0xf0, 0xe0, 0xa8, 0x43,
  0x00, 0x00, 0x00, 0x00, 0x00, 0x00, 0x00, 0x00, 0x00, 0x00, 0x00, 0x00,
  0x16, 0xfb, 0xff, 0xff, 0x04, 0x00, 0x00, 0x00, 0xc8, 0x00, 0x00, 0x00,
  0xef, 0xff, 0x07, 0x04, 0x16, 0xee, 0xf8, 0x04, 0xe8, 0xe6, 0xf7, 0xf0,
  0x17, 0x15, 0xf8, 0xff, 0xe7, 0x03, 0xf7, 0x02, 0xee, 0x04, 0xf2, 0x09,
  0x07, 0x00, 0x13, 0xf4, 0xf2, 0xed, 0x01, 0xea, 0xfa, 0xf6, 0xeb, 0xe8,
  0xf6, 0x10, 0x0c, 0xe5, 0xec, 0x33, 0x05, 0xe3, 0x0e, 0x1e, 0x39, 0xd9,
  0x2f, 0x0a, 0x15, 0x05, 0x28, 0xd6, 0x05, 0xf7, 0xfe, 0x65, 0xe5, 0xfd,
  0xf2, 0xeb, 0xe9, 0x0a, 0xfb, 0x1e, 0x0f, 0x4a, 0x12, 0xd3, 0x5d, 0xf4,
  0xfe, 0xf1, 0x3c, 0x0a, 0xef, 0x55, 0x17, 0xcd, 0x02, 0x27, 0xf8, 0x0c,
  0xe6, 0x23, 0xec, 0x10, 0x07, 0x4b, 0xe3, 0x15, 0xd7, 0x3a, 0x19, 0x39,
  0x2c, 0xb4, 0x32, 0x34, 0x0f, 0x64, 0xef, 0x2d, 0xef, 0x21, 0x0b, 0xce,
  0x52, 0x3a, 0xdd, 0x7f, 0xe9, 0x57, 0xe5, 0x6c, 0x27, 0xeb, 0xfc, 0x64,
  0x17, 0xfa, 0x0c, 0x45, 0x0f, 0xfb, 0xe5, 0x14, 0x0f, 0x49, 0xe7, 0x38,
  0xcf, 0x32, 0x14, 0x1f, 0x2a, 0xdb, 0x24, 0x10, 0xf1, 0x08, 0xf0, 0xe5,
  0xf9, 0xf2, 0xf5, 0xe8, 0x0f, 0x0f, 0x0e, 0x15, 0xf8, 0xfc, 0xfb, 0xf0,
  0xea, 0xfd, 0xf2, 0x04, 0xf2, 0x08, 0x04, 0x22, 0x17, 0x0e, 0x0c, 0x16,
  0xf8, 0xde, 0x44, 0x09, 0x15, 0x1c, 0x36, 0x00, 0xda, 0x53, 0x0f, 0xec,
  0xf8, 0x38, 0x01, 0x06, 0xf1, 0x31, 0x36, 0xc3, 0x38, 0x04, 0xf9, 0x2f,
  0xfd, 0xf9, 0xcd, 0x1d, 0x2d, 0x1a, 0x02, 0x31, 0x00, 0x00, 0x00, 0x00,
  0x00, 0x00, 0x00, 0x00, 0x00, 0x00, 0x00, 0x00, 0xf6, 0xfb, 0xff, 0xff,
  0x04, 0x00, 0x00, 0x00, 0x94, 0x02, 0x00, 0x00, 0xeb, 0xf1, 0xf3, 0x03,
  0xfc, 0x02, 0xed, 0xee, 0xec, 0x02, 0x13, 0xf1, 0xec, 0x0f, 0x06, 0x12,
  0x11, 0xf5, 0x0c, 0xef, 0x0f, 0xe9, 0x11, 0xf0, 0xf3, 0xf3, 0xec, 0x09,
  0xf7, 0xf7, 0xf0, 0xe9, 0x03, 0x45, 0x0e, 0x22, 0x05, 0x11, 0x15, 0x0e,
  0x3b, 0x21, 0x44, 0x4e, 0x39, 0x0e, 0x01, 0xf9, 0xfd, 0xf6, 0xeb, 0xd1,
  0x3c, 0x6e, 0x2d, 0xed, 0x13, 0xe9, 0xfe, 0x11, 0x08, 0xf2, 0xc8, 0xd8,
  0x2e, 0x04, 0xfd, 0xe8, 0xee, 0x09, 0x00, 0x04, 0xea, 0xf9, 0xf3, 0x03,
  0xf7, 0xf4, 0xec, 0xf7, 0x0c, 0xed, 0xf1, 0xfb, 0x0d, 0xe7, 0x0d, 0xfc,
  0xee, 0xfe, 0xef, 0x0c, 0xfc, 0xf5, 0xfc, 0xec, 0xeb, 0x0b, 0xe8, 0x10,
  0x0d, 0xe7, 0x0c, 0x0b, 0x05, 0xef, 0xf5, 0xd9, 0xea, 0xfa, 0x0e, 0x1c,
  0x08, 0x09, 0xfc, 0xff, 0x00, 0x5b, 0xdf, 0x8b, 0xff, 0x63, 0xfa, 0x23,
  0x0e, 0xfb, 0xfc, 0x14, 0x47, 0x3b, 0x27, 0x0b, 0xfb, 0x08, 0xed, 0x06,
  0x00, 0x13, 0xee, 0xf1, 0xff, 0x03, 0x02, 0xfc, 0xfa, 0xf6, 0xed, 0xff,
  0xf5, 0xf6, 0x01, 0xff, 0xff, 0xf3, 0xf7, 0x04, 0x00, 0xf5, 0x12, 0x09,
  0x14, 0x00, 0x09, 0xf3, 0xf4, 0x3b, 0x03, 0x16, 0x0e, 0x11, 0x0a, 0x07,
  0x27, 0x23, 0x16, 0x24, 0x29, 0x2c, 0x02, 0x1c, 0x10, 0xf4, 0x08, 0xcf,
  0x33, 0x52, 0x22, 0xed, 0x19, 0xcb, 0x05, 0xff, 0xf5, 0x0a, 0xbf, 0xc9,
  0x29, 0x08, 0x04, 0x1b, 0x12, 0x0a, 0x0b, 0x06, 0x06, 0x29, 0x17, 0x30,
  0x06, 0xee, 0xef, 0xeb, 0x25, 0x17, 0xfd, 0x0c, 0xe5, 0xf3, 0x2c, 0x0e,
  0x08, 0xff, 0x07, 0x01, 0xf7, 0x03, 0x05, 0xec, 0xf8, 0xf5, 0xe7, 0xd1,
  0x2a, 0xdf, 0xff, 0xf4, 0x15, 0x04, 0xcc, 0xdc, 0xb8, 0xe0, 0xe0, 0x00,
  0x02, 0xf7, 0x01, 0x03, 0xf2, 0x4f, 0xe4, 0x90, 0xd8, 0x21, 0xf9, 0x31,
  0xf8, 0x15, 0x0a, 0x0b, 0x5b, 0x37, 0x1e, 0xf3, 0x41, 0x0c, 0x26, 0xfd,
  0x1f, 0x0c, 0xfa, 0x21, 0x35, 0x1e, 0x24, 0x4c, 0x15, 0xff, 0xf5, 0xfe,
  0x03, 0xfb, 0xcc, 0x23, 0x65, 0x31, 0xe3, 0x08, 0xcc, 0x0c, 0xe5, 0x02,
  0x0f, 0xbd, 0xb9, 0x11, 0xf8, 0x4c, 0x10, 0x15, 0x05, 0xe7, 0x00, 0xff,
  0x11, 0x1b, 0xf7, 0x34, 0x50, 0xf6, 0x2b, 0xf8, 0xed, 0x01, 0x0f, 0x5c,
  0x2e, 0x37, 0xf8, 0x54, 0x20, 0x4c, 0x04, 0x0c, 0xf4, 0x16, 0x60, 0x36,
  0x2a, 0x31, 0xb9, 0xfc, 0xdd, 0xfa, 0x1f, 0xf8, 0x07, 0xe9, 0xba, 0xe0,
  0xce, 0xd8, 0x21, 0xeb, 0x0d, 0x00, 0xf7, 0x13, 0xd1, 0xba, 0xa8, 0x09,
  0xd2, 0x00, 0xbf, 0xf3, 0xdd, 0x0e, 0x0a, 0x95, 0xaf, 0xfe, 0xbc, 0x5e,
  0x07, 0x05, 0x02, 0x08, 0x15, 0x05, 0x1e, 0x24, 0x34, 0x3c, 0x73, 0x09,
  0xf5, 0xf9, 0x0e, 0x04, 0x0e, 0xde, 0x3c, 0x5b, 0x3f, 0x45, 0x11, 0x05,
  0xf8, 0x04, 0x10, 0xf0, 0xf8, 0xde, 0x33, 0x15, 0xfb, 0x12, 0xf5, 0xf2,
  0x10, 0xf9, 0x06, 0xe8, 0xee, 0x15, 0xfd, 0xf7, 0xf3, 0x14, 0x17, 0xed,
  0x0f, 0x02, 0xd3, 0x01, 0x0e, 0x00, 0x09, 0xfd, 0xea, 0xfa, 0xec, 0x06,
  0x11, 0xe0, 0x02, 0xfb, 0xf7, 0x21, 0x0a, 0xee, 0x09, 0xfe, 0xf9, 0x0a,
  0xe8, 0xe9, 0xef, 0x14, 0x3d, 0x0b, 0xf8, 0xfb, 0xff, 0xf6, 0xf7, 0x4c,
  0x00, 0x99, 0xf3, 0x5e, 0xee, 0x22, 0x1a, 0x15, 0x07, 0x16, 0x4d, 0x3f,
  0x29, 0x1c, 0xc7, 0xfd, 0xf5, 0xfa, 0x0f, 0xf8, 0x0b, 0xde, 0xca, 0xc4,
  0xb9, 0xe7, 0x03, 0xf4, 0x01, 0xfb, 0xf9, 0xfa, 0x43, 0xc5, 0x9d, 0xf3,
  0x1e, 0x14, 0x33, 0x0d, 0xfb, 0x00, 0xfa, 0x38, 0x30, 0x11, 0x16, 0x55,
  0x1e, 0x16, 0x16, 0x0a, 0x13, 0xf2, 0x16, 0x1d, 0x3c, 0x42, 0x7f, 0x07,
  0x1b, 0x17, 0xf1, 0xfc, 0x0f, 0x54, 0x49, 0x2d, 0x39, 0x78, 0xf6, 0x29,
  0x0b, 0x20, 0x08, 0x02, 0x51, 0x35, 0x25, 0x29, 0x1e, 0x1a, 0x23, 0x0e,
  0x09, 0x01, 0xff, 0x12, 0x18, 0x20, 0x27, 0x30, 0xe4, 0xe7, 0xf2, 0x0b,
  0x0c, 0x07, 0xc9, 0x19, 0x3c, 0xf6, 0x2b, 0x19, 0x25, 0x09, 0xfb, 0x01,
  0x14, 0x30, 0x17, 0x11, 0x12, 0xcd, 0x03, 0xdc, 0xed, 0x14, 0xf7, 0x04,
  0xf0, 0xd6, 0xf6, 0xd6, 0xd7, 0x01, 0xc7, 0x0b, 0x09, 0x06, 0x02, 0xb6,
  0xd5, 0xcd, 0xe8, 0xd5, 0xc7, 0xee, 0xfa, 0xec, 0x13, 0x0a, 0xdd, 0xdc,
  0xe8, 0xd9, 0xf5, 0x0a, 0xfe, 0x09, 0x04, 0x07, 0xfe, 0xd3, 0xcf, 0xd0,
  0xda, 0x13, 0x11, 0x0c, 0xe9, 0x03, 0xfa, 0xff, 0x37, 0xf7, 0xac, 0xe2,
  0x3d, 0x1e, 0x20, 0xd6, 0xfc, 0xfa, 0x04, 0x3f, 0x4a, 0x20, 0x2b, 0x3b,
  0x13, 0x2e, 0x18, 0x12, 0x01, 0x02, 0x12, 0x3b, 0x3d, 0x3a, 0x65, 0x03,
  0x1e, 0x14, 0x0a, 0x01, 0xe7, 0xdf, 0x3e, 0x54, 0x37, 0x36, 0xe6, 0x03,
  0x10, 0xfc, 0x12, 0xe9, 0xdf, 0xe0, 0xfb, 0x2b, 0x96, 0xfe, 0xff, 0xff,
  0x04, 0x00, 0x00, 0x00, 0x10, 0x00, 0x00, 0x00, 0xd8, 0x00, 0x00, 0x00,
  0x6c, 0xff, 0xff, 0xff, 0x3b, 0x00, 0x00, 0x00, 0x84, 0xff, 0xff, 0xff,
  0x00, 0x00, 0x00, 0x00, 0xb6, 0xfe, 0xff, 0xff, 0x04, 0x00, 0x00, 0x00,
  0x28, 0x00, 0x00, 0x00, 0xac, 0xff, 0xff, 0xff, 0x99, 0xff, 0xff, 0xff,
  0x39, 0x03, 0x00, 0x00, 0x38, 0x08, 0x00, 0x00, 0xe6, 0x01, 0x00, 0x00,
  0xca, 0xff, 0xff, 0xff, 0x31, 0x00, 0x00, 0x00, 0xb3, 0xfe, 0xff, 0xff,
  0x78, 0x05, 0x00, 0x00, 0x0f, 0x00, 0x00, 0x00, 0x00, 0x00, 0x00, 0x00,
  0x00, 0x00, 0x00, 0x00, 0x00, 0x00, 0x00, 0x00, 0xf6, 0xfe, 0xff, 0xff,
  0x04, 0x00, 0x00, 0x00, 0x50, 0x00, 0x00, 0x00, 0x28, 0xff, 0xff, 0xff,
  0xeb, 0x01, 0x00, 0x00, 0xb2, 0xfd, 0xff, 0xff, 0x14, 0x01, 0x00, 0x00,
  0x69, 0xfe, 0xff, 0xff, 0xc8, 0x07, 0x00, 0x00, 0x69, 0xff, 0xff, 0xff,
  0xbd, 0x07, 0x00, 0x00, 0xd7, 0x04, 0x00, 0x00, 0x0c, 0x00, 0x00, 0x00,
  0x6f, 0x0f, 0x00, 0x00, 0x06, 0x01, 0x00, 0x00, 0x3a, 0xfe, 0xff, 0xff,
  0x89, 0x02, 0x00, 0x00, 0xb7, 0x0e, 0x00, 0x00, 0xf9, 0x03, 0x00, 0x00,
  0x06, 0x00, 0x00, 0x00, 0x6f, 0x0f, 0x00, 0x00, 0x44, 0x03, 0x00, 0x00,
  0x04, 0x00, 0x00, 0x00, 0x00, 0x00, 0x00, 0x00, 0x00, 0x00, 0x00, 0x00,
  0x00, 0x00, 0x00, 0x00, 0x2c, 0xff, 0xff, 0xff, 0x00, 0x00, 0x00, 0x00,
  0x00, 0x00, 0x00, 0x00, 0x00, 0x00, 0x00, 0x00, 0x3c, 0xff, 0xff, 0xff,
  0x0f, 0x00, 0x00, 0x00, 0x4d, 0x4c, 0x49, 0x52, 0x20, 0x43, 0x6f, 0x6e,
  0x76, 0x65, 0x72, 0x74, 0x65, 0x64, 0x2e, 0x00, 0x01, 0x00, 0x00, 0x00,
  0x14, 0x00, 0x00, 0x00, 0x00, 0x00, 0x0e, 0x00, 0x18, 0x00, 0x04, 0x00,
  0x08, 0x00, 0x0c, 0x00, 0x10, 0x00, 0x14, 0x00, 0x0e, 0x00, 0x00, 0x00,
  0x50, 0x01, 0x00, 0x00, 0x44, 0x01, 0x00, 0x00, 0x38, 0x01, 0x00, 0x00,
  0x14, 0x00, 0x00, 0x00, 0x04, 0x00, 0x00, 0x00, 0x04, 0x00, 0x00, 0x00,
  0x6d, 0x61, 0x69, 0x6e, 0x00, 0x00, 0x00, 0x00, 0x04, 0x00, 0x00, 0x00,
  0xe0, 0x00, 0x00, 0x00, 0x98, 0x00, 0x00, 0x00, 0x50, 0x00, 0x00, 0x00,
  0x14, 0x00, 0x00, 0x00, 0x00, 0x00, 0x0e, 0x00, 0x1a, 0x00, 0x08, 0x00,
  0x0c, 0x00, 0x10, 0x00, 0x07, 0x00, 0x14, 0x00, 0x0e, 0x00, 0x00, 0x00,
  0x00, 0x00, 0x00, 0x09, 0x01, 0x00, 0x00, 0x00, 0x24, 0x00, 0x00, 0x00,
  0x18, 0x00, 0x00, 0x00, 0x0c, 0x00, 0x00, 0x00, 0x00, 0x00, 0x06, 0x00,
  0x08, 0x00, 0x04, 0x00, 0x06, 0x00, 0x00, 0x00, 0x00, 0x00, 0x80, 0x3f,
  0x01, 0x00, 0x00, 0x00, 0x0a, 0x00, 0x00, 0x00, 0x01, 0x00, 0x00, 0x00,
  0x09, 0x00, 0x00, 0x00, 0xca, 0xff, 0xff, 0xff, 0x00, 0x00, 0x00, 0x08,
  0x1c, 0x00, 0x00, 0x00, 0x10, 0x00, 0x00, 0x00, 0x08, 0x00, 0x00, 0x00,
  0x04, 0x00, 0x04, 0x00, 0x04, 0x00, 0x00, 0x00, 0x01, 0x00, 0x00, 0x00,
  0x09, 0x00, 0x00, 0x00, 0x03, 0x00, 0x00, 0x00, 0x08, 0x00, 0x00, 0x00,
  0x06, 0x00, 0x00, 0x00, 0x03, 0x00, 0x00, 0x00, 0x00, 0x00, 0x0e, 0x00,
  0x14, 0x00, 0x00, 0x00, 0x08, 0x00, 0x0c, 0x00, 0x07, 0x00, 0x10, 0x00,
  0x0e, 0x00, 0x00, 0x00, 0x00, 0x00, 0x00, 0x08, 0x1c, 0x00, 0x00, 0x00,
  0x10, 0x00, 0x00, 0x00, 0x04, 0x00, 0x00, 0x00, 0xba, 0xff, 0xff, 0xff,
  0x00, 0x00, 0x00, 0x01, 0x01, 0x00, 0x00, 0x00, 0x08, 0x00, 0x00, 0x00,
  0x03, 0x00, 0x00, 0x00, 0x07, 0x00, 0x00, 0x00, 0x05, 0x00, 0x00, 0x00,
  0x02, 0x00, 0x00, 0x00, 0x00, 0x00, 0x0e, 0x00, 0x16, 0x00, 0x00, 0x00,
  0x08, 0x00, 0x0c, 0x00, 0x07, 0x00, 0x10, 0x00, 0x0e, 0x00, 0x00, 0x00,
  0x00, 0x00, 0x00, 0x08, 0x24, 0x00, 0x00, 0x00, 0x18, 0x00, 0x00, 0x00,
  0x0c, 0x00, 0x00, 0x00, 0x00, 0x00, 0x06, 0x00, 0x08, 0x00, 0x07, 0x00,
  0x06, 0x00, 0x00, 0x00, 0x00, 0x00, 0x00, 0x01, 0x01, 0x00, 0x00, 0x00,
  0x07, 0x00, 0x00, 0x00, 0x03, 0x00, 0x00, 0x00, 0x00, 0x00, 0x00, 0x00,
  0x04, 0x00, 0x00, 0x00, 0x01, 0x00, 0x00, 0x00, 0x01, 0x00, 0x00, 0x00,
  0x0a, 0x00, 0x00, 0x00, 0x01, 0x00, 0x00, 0x00, 0x00, 0x00, 0x00, 0x00,
  0x0b, 0x00, 0x00, 0x00, 0x38, 0x06, 0x00, 0x00, 0xc4, 0x05, 0x00, 0x00,
  0x6c, 0x05, 0x00, 0x00, 0x18, 0x05, 0x00, 0x00, 0x6c, 0x04, 0x00, 0x00,
  0xb8, 0x03, 0x00, 0x00, 0x04, 0x03, 0x00, 0x00, 0x10, 0x02, 0x00, 0x00,
  0x14, 0x01, 0x00, 0x00, 0x60, 0x00, 0x00, 0x00, 0x04, 0x00, 0x00, 0x00,
  0x02, 0xfa, 0xff, 0xff, 0x00, 0x00, 0x00, 0x09, 0x44, 0x00, 0x00, 0x00,
  0x0b, 0x00, 0x00, 0x00, 0x2c, 0x00, 0x00, 0x00, 0x04, 0x00, 0x00, 0x00,
  0x64, 0xfa, 0xff, 0xff, 0x18, 0x00, 0x00, 0x00, 0x04, 0x00, 0x00, 0x00,
  0x01, 0x00, 0x00, 0x00, 0x80, 0xff, 0xff, 0xff, 0xff, 0xff, 0xff, 0xff,
  0x00, 0x00, 0x00, 0x00, 0x01, 0x00, 0x00, 0x00, 0x00, 0x00, 0x80, 0x3b,
  0x08, 0x00, 0x00, 0x00, 0x49, 0x64, 0x65, 0x6e, 0x74, 0x69, 0x74, 0x79,
  0x00, 0x00, 0x00, 0x00, 0x02, 0x00, 0x00, 0x00, 0x01, 0x00, 0x00, 0x00,
  0x04, 0x00, 0x00, 0x00, 0x5a, 0xfa, 0xff, 0xff, 0x00, 0x00, 0x00, 0x09,
  0x9c, 0x00, 0x00, 0x00, 0x0a, 0x00, 0x00, 0x00, 0x44, 0x00, 0x00, 0x00,
  0x04, 0x00, 0x00, 0x00, 0x4c, 0xfa, 0xff, 0xff, 0x30, 0x00, 0x00, 0x00,
  0x24, 0x00, 0x00, 0x00, 0x18, 0x00, 0x00, 0x00, 0x04, 0x00, 0x00, 0x00,
  0x01, 0x00, 0x00, 0x00, 0x49, 0x00, 0x00, 0x00, 0x00, 0x00, 0x00, 0x00,
  0x00, 0x00, 0x00, 0x00, 0x01, 0x00, 0x00, 0x00, 0x8a, 0x13, 0x24, 0x3f,
  0x01, 0x00, 0x00, 0x00, 0xc6, 0x5a, 0x0b, 0x42, 0x01, 0x00, 0x00, 0x00,
  0xc4, 0x98, 0x00, 0xc3, 0x4b, 0x00, 0x00, 0x00, 0x73, 0x65, 0x71, 0x75,
  0x65, 0x6e, 0x74, 0x69, 0x61, 0x6c, 0x2f, 0x79, 0x5f, 0x70, 0x72, 0x65,
  0x64, 0x2f, 0x42, 0x69, 0x61, 0x73, 0x41, 0x64, 0x64, 0x3b, 0x53, 0x74,
  0x61, 0x74, 0x65, 0x66, 0x75, 0x6c, 0x50, 0x61, 0x72, 0x74, 0x69, 0x74,
  0x69, 0x6f, 0x6e, 0x65, 0x64, 0x43, 0x61, 0x6c, 0x6c, 0x2f, 0x73, 0x65,
  0x71, 0x75, 0x65, 0x6e, 0x74, 0x69, 0x61, 0x6c, 0x2f, 0x79, 0x5f, 0x70,
  0x72, 0x65, 0x64, 0x2f, 0x42, 0x69, 0x61, 0x73, 0x41, 0x64, 0x64, 0x00,
  0x02, 0x00, 0x00, 0x00, 0x01, 0x00, 0x00, 0x00, 0x04, 0x00, 0x00, 0x00,
  0x0a, 0xfb, 0xff, 0xff, 0x00, 0x00, 0x00, 0x09, 0xe4, 0x00, 0x00, 0x00,
  0x09, 0x00, 0x00, 0x00, 0x40, 0x00, 0x00, 0x00, 0x04, 0x00, 0x00, 0x00,
  0xfc, 0xfa, 0xff, 0xff, 0x2c, 0x00, 0x00, 0x00, 0x20, 0x00, 0x00, 0x00,
  0x14, 0x00, 0x00, 0x00, 0x04, 0x00, 0x00, 0x00, 0x01, 0x00, 0x00, 0x00,
  0x80, 0xff, 0xff, 0xff, 0xff, 0xff, 0xff, 0xff, 0x01, 0x00, 0x00, 0x00,
  0x28, 0xa8, 0x03, 0x3e, 0x01, 0x00, 0x00, 0x00, 0x80, 0x24, 0x03, 0x42,
  0x01, 0x00, 0x00, 0x00, 0x00, 0x00, 0x00, 0x00, 0x95, 0x00, 0x00, 0x00,
  0x73, 0x65, 0x71, 0x75, 0x65, 0x6e, 0x74, 0x69, 0x61, 0x6c, 0x2f, 0x64,
  0x65, 0x6e, 0x73, 0x65, 0x5f, 0x31, 0x2f, 0x52, 0x65, 0x6c, 0x75, 0x3b,
  0x53, 0x74, 0x61, 0x74, 0x65, 0x66, 0x75, 0x6c, 0x50, 0x61, 0x72, 0x74,
  0x69, 0x74, 0x69, 0x6f, 0x6e, 0x65, 0x64, 0x43, 0x61, 0x6c, 0x6c, 0x2f,
  0x73, 0x65, 0x71, 0x75, 0x65, 0x6e, 0x74, 0x69, 0x61, 0x6c, 0x2f, 0x64,
  0x65, 0x6e, 0x73, 0x65, 0x5f, 0x31, 0x2f, 0x52, 0x65, 0x6c, 0x75, 0x3b,
  0x73, 0x65, 0x71, 0x75, 0x65, 0x6e, 0x74, 0x69, 0x61, 0x6c, 0x2f, 0x64,
  0x65, 0x6e, 0x73, 0x65, 0x5f, 0x31, 0x2f, 0x42, 0x69, 0x61, 0x73, 0x41,
  0x64, 0x64, 0x3b, 0x53, 0x74, 0x61, 0x74, 0x65, 0x66, 0x75, 0x6c, 0x50,
  0x61, 0x72, 0x74, 0x69, 0x74, 0x69, 0x6f, 0x6e, 0x65, 0x64, 0x43, 0x61,
  0x6c, 0x6c, 0x2f, 0x73, 0x65, 0x71, 0x75, 0x65, 0x6e, 0x74, 0x69, 0x61,
  0x6c, 0x2f, 0x64, 0x65, 0x6e, 0x73, 0x65, 0x5f, 0x31, 0x2f, 0x42, 0x69,
  0x61, 0x73, 0x41, 0x64, 0x64, 0x00, 0x00, 0x00, 0x02, 0x00, 0x00, 0x00,
  0x01, 0x00, 0x00, 0x00, 0x0a, 0x00, 0x00, 0x00, 0x02, 0xfc, 0xff, 0xff,
  0x00, 0x00, 0x00, 0x09, 0xdc, 0x00, 0x00, 0x00, 0x08, 0x00, 0x00, 0x00,
  0x40, 0x00, 0x00, 0x00, 0x04, 0x00, 0x00, 0x00, 0xf4, 0xfb, 0xff, 0xff,
  0x2c, 0x00, 0x00, 0x00, 0x20, 0x00, 0x00, 0x00, 0x14, 0x00, 0x00, 0x00,
  0x04, 0x00, 0x00, 0x00, 0x01, 0x00, 0x00, 0x00, 0x80, 0xff, 0xff, 0xff,
  0xff, 0xff, 0xff, 0xff, 0x01, 0x00, 0x00, 0x00, 0x6c, 0x40, 0x94, 0x3c,
  0x01, 0x00, 0x00, 0x00, 0x2c, 0xac, 0x93, 0x40, 0x01, 0x00, 0x00, 0x00,
  0x00, 0x00, 0x00, 0x00, 0x8d, 0x00, 0x00, 0x00, 0x73, 0x65, 0x71, 0x75,
  0x65, 0x6e, 0x74, 0x69, 0x61, 0x6c, 0x2f, 0x64, 0x65, 0x6e, 0x73, 0x65,
  0x2f, 0x52, 0x65, 0x6c, 0x75, 0x3b, 0x53, 0x74, 0x61, 0x74, 0x65, 0x66,
  0x75, 0x6c, 0x50, 0x61, 0x72, 0x74, 0x69, 0x74, 0x69, 0x6f, 0x6e, 0x65,
  0x64, 0x43, 0x61, 0x6c, 0x6c, 0x2f, 0x73, 0x65, 0x71, 0x75, 0x65, 0x6e,
  0x74, 0x69, 0x61, 0x6c, 0x2f, 0x64, 0x65, 0x6e, 0x73, 0x65, 0x2f, 0x52,
  0x65, 0x6c, 0x75, 0x3b, 0x73, 0x65, 0x71, 0x75, 0x65, 0x6e, 0x74, 0x69,
  0x61, 0x6c, 0x2f, 0x64, 0x65, 0x6e, 0x73, 0x65, 0x2f, 0x42, 0x69, 0x61,
  0x73, 0x41, 0x64, 0x64, 0x3b, 0x53, 0x74, 0x61, 0x74, 0x65, 0x66, 0x75,
  0x6c, 0x50, 0x61, 0x72, 0x74, 0x69, 0x74, 0x69, 0x6f, 0x6e, 0x65, 0x64,
  0x43, 0x61, 0x6c, 0x6c, 0x2f, 0x73, 0x65, 0x71, 0x75, 0x65, 0x6e, 0x74,
  0x69, 0x61, 0x6c, 0x2f, 0x64, 0x65, 0x6e, 0x73, 0x65, 0x2f, 0x42, 0x69,
  0x61, 0x73, 0x41, 0x64, 0x64, 0x00, 0x00, 0x00, 0x02, 0x00, 0x00, 0x00,
  0x01, 0x00, 0x00, 0x00, 0x14, 0x00, 0x00, 0x00, 0xf2, 0xfc, 0xff, 0xff,
  0x00, 0x00, 0x00, 0x09, 0x9c, 0x00, 0x00, 0x00, 0x07, 0x00, 0x00, 0x00,
  0x44, 0x00, 0x00, 0x00, 0x04, 0x00, 0x00, 0x00, 0xe4, 0xfc, 0xff, 0xff,
  0x30, 0x00, 0x00, 0x00, 0x24, 0x00, 0x00, 0x00, 0x18, 0x00, 0x00, 0x00,
  0x04, 0x00, 0x00, 0x00, 0x01, 0x00, 0x00, 0x00, 0x00, 0x00, 0x00, 0x00,
  0x00, 0x00, 0x00, 0x00, 0x00, 0x00, 0x00, 0x00, 0x01, 0x00, 0x00, 0x00,
  0x2b, 0x7b, 0x81, 0x3c, 0x01, 0x00, 0x00, 0x00, 0x7b, 0xaa, 0x88, 0x3f,
  0x01, 0x00, 0x00, 0x00, 0x35, 0x78, 0x00, 0xc0, 0x49, 0x00, 0x00, 0x00,
  0x73, 0x65, 0x71, 0x75, 0x65, 0x6e, 0x74, 0x69, 0x61, 0x6c, 0x2f, 0x79,
  0x5f, 0x70, 0x72, 0x65, 0x64, 0x2f, 0x4d, 0x61, 0x74, 0x4d, 0x75, 0x6c,
  0x3b, 0x53, 0x74, 0x61, 0x74, 0x65, 0x66, 0x75, 0x6c, 0x50, 0x61, 0x72,
  0x74, 0x69, 0x74, 0x69, 0x6f, 0x6e, 0x65, 0x64, 0x43, 0x61, 0x6c, 0x6c,
  0x2f, 0x73, 0x65, 0x71, 0x75, 0x65, 0x6e, 0x74, 0x69, 0x61, 0x6c, 0x2f,
  0x79, 0x5f, 0x70, 0x72, 0x65, 0x64, 0x2f, 0x4d, 0x61, 0x74, 0x4d, 0x75,
  0x6c, 0x00, 0x00, 0x00, 0x02, 0x00, 0x00, 0x00, 0x04, 0x00, 0x00, 0x00,
  0x0a, 0x00, 0x00, 0x00, 0xa2, 0xfd, 0xff, 0xff, 0x00, 0x00, 0x00, 0x09,
  0x9c, 0x00, 0x00, 0x00, 0x06, 0x00, 0x00, 0x00, 0x44, 0x00, 0x00, 0x00,
  0x04, 0x00, 0x00, 0x00, 0x94, 0xfd, 0xff, 0xff, 0x30, 0x00, 0x00, 0x00,
  0x24, 0x00, 0x00, 0x00, 0x18, 0x00, 0x00, 0x00, 0x04, 0x00, 0x00, 0x00,
  0x01, 0x00, 0x00, 0x00, 0x00, 0x00, 0x00, 0x00, 0x00, 0x00, 0x00, 0x00,
  0x00, 0x00, 0x00, 0x00, 0x01, 0x00, 0x00, 0x00, 0x3b, 0x1f, 0x81, 0x3c,
  0x01, 0x00, 0x00, 0x00, 0xfd, 0x1c, 0x00, 0x40, 0x01, 0x00, 0x00, 0x00,
  0x97, 0xb2, 0x98, 0xbf, 0x4b, 0x00, 0x00, 0x00, 0x73, 0x65, 0x71, 0x75,
  0x65, 0x6e, 0x74, 0x69, 0x61, 0x6c, 0x2f, 0x64, 0x65, 0x6e, 0x73, 0x65,
  0x5f, 0x31, 0x2f, 0x4d, 0x61, 0x74, 0x4d, 0x75, 0x6c, 0x3b, 0x53, 0x74,
  0x61, 0x74, 0x65, 0x66, 0x75, 0x6c, 0x50, 0x61, 0x72, 0x74, 0x69, 0x74,
  0x69, 0x6f, 0x6e, 0x65, 0x64, 0x43, 0x61, 0x6c, 0x6c, 0x2f, 0x73, 0x65,
  0x71, 0x75, 0x65, 0x6e, 0x74, 0x69, 0x61, 0x6c, 0x2f, 0x64, 0x65, 0x6e,
  0x73, 0x65, 0x5f, 0x31, 0x2f, 0x4d, 0x61, 0x74, 0x4d, 0x75, 0x6c, 0x00,
  0x02, 0x00, 0x00, 0x00, 0x0a, 0x00, 0x00, 0x00, 0x14, 0x00, 0x00, 0x00,
  0x52, 0xfe, 0xff, 0xff, 0x00, 0x00, 0x00, 0x09, 0x94, 0x00, 0x00, 0x00,
  0x05, 0x00, 0x00, 0x00, 0x40, 0x00, 0x00, 0x00, 0x04, 0x00, 0x00, 0x00,
  0x44, 0xfe, 0xff, 0xff, 0x2c, 0x00, 0x00, 0x00, 0x20, 0x00, 0x00, 0x00,
  0x14, 0x00, 0x00, 0x00, 0x04, 0x00, 0x00, 0x00, 0x01, 0x00, 0x00, 0x00,
  0x00, 0x00, 0x00, 0x00, 0x00, 0x00, 0x00, 0x00, 0x01, 0x00, 0x00, 0x00,
  0x56, 0x43, 0x74, 0x3c, 0x01, 0x00, 0x00, 0x00, 0xcf, 0x5a, 0xf2, 0x3f,
  0x01, 0x00, 0x00, 0x00, 0x26, 0xaa, 0xdf, 0xbf, 0x47, 0x00, 0x00, 0x00,
  0x73, 0x65, 0x71, 0x75, 0x65, 0x6e, 0x74, 0x69, 0x61, 0x6c, 0x2f, 0x64,
  0x65, 0x6e, 0x73, 0x65, 0x2f, 0x4d, 0x61, 0x74, 0x4d, 0x75, 0x6c, 0x3b,
  0x53, 0x74, 0x61, 0x74, 0x65, 0x66, 0x75, 0x6c, 0x50, 0x61, 0x72, 0x74,
  0x69, 0x74, 0x69, 0x6f, 0x6e, 0x65, 0x64, 0x43, 0x61, 0x6c, 0x6c, 0x2f,
  0x73, 0x65, 0x71, 0x75, 0x65, 0x6e, 0x74, 0x69, 0x61, 0x6c, 0x2f, 0x64,
  0x65, 0x6e, 0x73, 0x65, 0x2f, 0x4d, 0x61, 0x74, 0x4d, 0x75, 0x6c, 0x00,
  0x02, 0x00, 0x00, 0x00, 0x14, 0x00, 0x00, 0x00, 0x21, 0x00, 0x00, 0x00,
  0xfa, 0xfe, 0xff, 0xff, 0x00, 0x00, 0x00, 0x02, 0x40, 0x00, 0x00, 0x00,
  0x04, 0x00, 0x00, 0x00, 0x28, 0x00, 0x00, 0x00, 0x04, 0x00, 0x00, 0x00,
  0x5c, 0xff, 0xff, 0xff, 0x14, 0x00, 0x00, 0x00, 0x04, 0x00, 0x00, 0x00,
  0x01, 0x00, 0x00, 0x00, 0x00, 0x00, 0x00, 0x00, 0x00, 0x00, 0x00, 0x00,
  0x01, 0x00, 0x00, 0x00, 0x28, 0x2e, 0x05, 0x3b, 0x09, 0x00, 0x00, 0x00,
  0x75, 0x6e, 0x6b, 0x6e, 0x6f, 0x77, 0x6e, 0x5f, 0x34, 0x00, 0x00, 0x00,
  0x01, 0x00, 0x00, 0x00, 0x04, 0x00, 0x00, 0x00, 0x4a, 0xff, 0xff, 0xff,
  0x00, 0x00, 0x00, 0x02, 0x44, 0x00, 0x00, 0x00, 0x03, 0x00, 0x00, 0x00,
  0x2c, 0x00, 0x00, 0x00, 0x04, 0x00, 0x00, 0x00, 0xac, 0xff, 0xff, 0xff,
  0x18, 0x00, 0x00, 0x00, 0x04, 0x00, 0x00, 0x00, 0x01, 0x00, 0x00, 0x00,
  0x00, 0x00, 0x00, 0x00, 0x00, 0x00, 0x00, 0x00, 0x00, 0x00, 0x00, 0x00,
  0x01, 0x00, 0x00, 0x00, 0x19, 0x8d, 0x95, 0x39, 0x09, 0x00, 0x00, 0x00,
  0x75, 0x6e, 0x6b, 0x6e, 0x6f, 0x77, 0x6e, 0x5f, 0x32, 0x00, 0x00, 0x00,
  0x01, 0x00, 0x00, 0x00, 0x0a, 0x00, 0x00, 0x00, 0x9e, 0xff, 0xff, 0xff,
  0x00, 0x00, 0x00, 0x02, 0x50, 0x00, 0x00, 0x00, 0x02, 0x00, 0x00, 0x00,
  0x38, 0x00, 0x00, 0x00, 0x10, 0x00, 0x00, 0x00, 0x0c, 0x00, 0x0c, 0x00,
  0x00, 0x00, 0x00, 0x00, 0x04, 0x00, 0x08, 0x00, 0x0c, 0x00, 0x00, 0x00,
  0x18, 0x00, 0x00, 0x00, 0x04, 0x00, 0x00, 0x00, 0x01, 0x00, 0x00, 0x00,
  0x00, 0x00, 0x00, 0x00, 0x00, 0x00, 0x00, 0x00, 0x00, 0x00, 0x00, 0x00,
  0x01, 0x00, 0x00, 0x00, 0xc0, 0x74, 0x36, 0x39, 0x09, 0x00, 0x00, 0x00,
  0x75, 0x6e, 0x6b, 0x6e, 0x6f, 0x77, 0x6e, 0x5f, 0x30, 0x00, 0x00, 0x00,
  0x01, 0x00, 0x00, 0x00, 0x14, 0x00, 0x00, 0x00, 0x00, 0x00, 0x0e, 0x00,
  0x18, 0x00, 0x08, 0x00, 0x07, 0x00, 0x0c, 0x00, 0x10, 0x00, 0x14, 0x00,
  0x0e, 0x00, 0x00, 0x00, 0x00, 0x00, 0x00, 0x09, 0x64, 0x00, 0x00, 0x00,
  0x01, 0x00, 0x00, 0x00, 0x4c, 0x00, 0x00, 0x00, 0x10, 0x00, 0x00, 0x00,
  0x0c, 0x00, 0x14, 0x00, 0x04, 0x00, 0x08, 0x00, 0x0c, 0x00, 0x10, 0x00,
  0x0c, 0x00, 0x00, 0x00, 0x2c, 0x00, 0x00, 0x00, 0x20, 0x00, 0x00, 0x00,
  0x14, 0x00, 0x00, 0x00, 0x04, 0x00, 0x00, 0x00, 0x01, 0x00, 0x00, 0x00,
  0x80, 0xff, 0xff, 0xff, 0xff, 0xff, 0xff, 0xff, 0x01, 0x00, 0x00, 0x00,
  0x21, 0x39, 0x3f, 0x3c, 0x01, 0x00, 0x00, 0x00, 0xe8, 0x79, 0x3e, 0x40,
  0x01, 0x00, 0x00, 0x00, 0x00, 0x00, 0x00, 0x00, 0x0b, 0x00, 0x00, 0x00,
  0x64, 0x65, 0x6e, 0x73, 0x65, 0x5f, 0x69, 0x6e, 0x70, 0x75, 0x74, 0x00,
  0x02, 0x00, 0x00, 0x00, 0x01, 0x00, 0x00, 0x00, 0x21, 0x00, 0x00, 0x00,
  0x02, 0x00, 0x00, 0x00, 0x2c, 0x00, 0x00, 0x00, 0x10, 0x00, 0x00, 0x00,
  0x00, 0x00, 0x0a, 0x00, 0x0e, 0x00, 0x07, 0x00, 0x00, 0x00, 0x08, 0x00,
  0x0a, 0x00, 0x00, 0x00, 0x00, 0x00, 0x00, 0x19, 0x02, 0x00, 0x00, 0x00,
  0x00, 0x00, 0x0a, 0x00, 0x0c, 0x00, 0x07, 0x00, 0x00, 0x00, 0x08, 0x00,
  0x0a, 0x00, 0x00, 0x00, 0x00, 0x00, 0x00, 0x09, 0x04, 0x00, 0x00, 0x00
};
unsigned int trained_tflite_len = 3600;
